{
  "token_to_id": {
    "<pad>": 0,
    "<unk>": 1,
    "<bos>": 2,
    "<eos>": 3,
    "!": 4,
    "\"": 5,
    "#": 6,
    "$": 7,
    "%": 8,
    "&": 9,
    "'": 10,
    "(": 11,
    ")": 12,
    "*": 13,
    "+": 14,
    ",": 15,
    "-": 16,
    ".": 17,
    "/": 18,
    "0": 19,
    "1": 20,
    "2": 21,
    "3": 22,
    "4": 23,
    "5": 24,
    "6": 25,
    "7": 26,
    "8": 27,
    "9": 28,
    ":": 29,
    ";": 30,
    "<": 31,
    "</w>": 32,
    "=": 33,
    ">": 34,
    "?": 35,
    "@": 36,
    "A": 37,
    "B": 38,
    "C": 39,
    "D": 40,
    "E": 41,
    "F": 42,
    "G": 43,
    "H": 44,
    "I": 45,
    "J": 46,
    "K": 47,
    "L": 48,
    "M": 49,
    "N": 50,
    "O": 51,
    "P": 52,
    "Q": 53,
    "R": 54,
    "S": 55,
    "T": 56,
    "U": 57,
    "V": 58,
    "W": 59,
    "X": 60,
    "Y": 61,
    "Z": 62,
    "[": 63,
    "\\": 64,
    "]": 65,
    "_": 66,
    "a": 67,
    "b": 68,
    "c": 69,
    "d": 70,
    "e": 71,
    "f": 72,
    "g": 73,
    "h": 74,
    "i": 75,
    "j": 76,
    "k": 77,
    "l": 78,
    "m": 79,
    "n": 80,
    "o": 81,
    "p": 82,
    "q": 83,
    "r": 84,
    "s": 85,
    "t": 86,
    "u": 87,
    "v": 88,
    "w": 89,
    "x": 90,
    "y": 91,
    "z": 92,
    "{": 93,
    "|": 94,
    "}": 95,
    "~": 96,
    "e</w>": 97,
    "th": 98,
    "s</w>": 99,
    "in": 100,
    "an": 101,
    "er": 102,
    "on": 103,
    "d</w>": 104,
    "or": 105,
    "t</w>": 106,
    "en": 107,
    "y</w>": 108,
    "ti": 109,
    ",</w>": 110,
    "the</w>": 111,
    "re": 112,
    "al": 113,
    "of": 114,
    "or</w>": 115,
    "o</w>": 116,
    "of</w>": 117,
    "tion": 118,
    "to</w>": 119,
    "ar": 120,
    "and</w>": 121,
    "--": 122,
    ".</w>": 123,
    "ed</w>": 124,
    "ro": 125,
    "er</w>": 126,
    "l</w>": 127,
    "at": 128,
    "ch": 129,
    "g</w>": 130,
    "men": 131,
    "in</w>": 132,
    "ec": 133,
    "it": 134,
    "ic": 135,
    "es</w>": 136,
    "su": 137,
    "es": 138,
    "is": 139,
    "ing</w>": 140,
    "all</w>": 141,
    "any</w>": 142,
    ")</w>": 143,
    "il": 144,
    "----": 145,
    "om": 146,
    "ac": 147,
    "sh": 148,
    "emen": 149,
    "ur": 150,
    "un": 151,
    "gre": 152,
    "pro": 153,
    "a</w>": 154,
    "bl": 155,
    "el": 156,
    "con": 157,
    "with": 158,
    "us": 159,
    "shall</w>": 160,
    "ts</w>": 161,
    "**": 162,
    "as": 163,
    "ation</w>": 164,
    "by</w>": 165,
    "pl": 166,
    "greemen": 167,
    "tr": 168,
    "ig": 169,
    "id": 170,
    "no": 171,
    "on</w>": 172,
    "ch</w>": 173,
    "be</w>": 174,
    "art": 175,
    "Agreemen": 176,
    "for": 177,
    "such</w>": 178,
    "du": 179,
    "this</w>": 180,
    "de": 181,
    "ex": 182,
    "per": 183,
    "oth": 184,
    "cl": 185,
    "with</w>": 186,
    "s,</w>": 187,
    "ve</w>": 188,
    "ma": 189,
    "abl": 190,
    "ol": 191,
    "ter": 192,
    "qu": 193,
    "ce</w>": 194,
    "--------": 195,
    "im": 196,
    "prov": 197,
    "os": 198,
    "that</w>": 199,
    "ap": 200,
    "ent</w>": 201,
    "In": 202,
    "en</w>": 203,
    "other</w>": 204,
    "duc": 205,
    "e,</w>": 206,
    "ate</w>": 207,
    "Pro": 208,
    "arty</w>": 209,
    "ly</w>": 210,
    "iv": 211,
    "if": 212,
    "t,</w>": 213,
    "ed": 214,
    "able</w>": 215,
    "wh": 216,
    "ir": 217,
    "ul": 218,
    "an</w>": 219,
    "st": 220,
    "com": 221,
    "Th": 222,
    "ag": 223,
    "==": 224,
    "em": 225,
    "ens": 226,
    "ow": 227,
    "not</w>": 228,
    ":</w>": 229,
    "ut": 230,
    "wil": 231,
    "Com": 232,
    "term": 233,
    "ff": 234,
    "***": 235,
    "S</w>": 236,
    "will</w>": 237,
    "ection</w>": 238,
    "ta": 239,
    "co": 240,
    "ev": 241,
    "pec": 242,
    "'s</w>": 243,
    "ran": 244,
    "ce": 245,
    "am": 246,
    "ding</w>": 247,
    "]</w>": 248,
    "igh": 249,
    ";</w>": 250,
    "E</w>": 251,
    "y,</w>": 252,
    "ib": 253,
    "ip": 254,
    "ER": 255,
    "ing": 256,
    "ity</w>": 257,
    "up": 258,
    "under</w>": 259,
    "pr": 260,
    "se": 261,
    "Party</w>": 262,
    "Produc": 263,
    "ay": 264,
    "clu": 265,
    "IN": 266,
    "ated</w>": 267,
    "be": 268,
    "por": 269,
    "ad": 270,
    "oc": 271,
    "..": 272,
    ".1": 273,
    "here": 274,
    "requ": 275,
    "EN": 276,
    "ted</w>": 277,
    "Con": 278,
    "inclu": 279,
    "me": 280,
    "TI": 281,
    "[***": 282,
    "ON": 283,
    "righ": 284,
    "The</w>": 285,
    "\"</w>": 286,
    "ha": 287,
    "Comp": 288,
    "s.</w>": 289,
    "ver": 290,
    "which</w>": 291,
    "from": 292,
    "AN": 293,
    "Section</w>": 294,
    "eg": 295,
    "from</w>": 296,
    "T</w>": 297,
    "t.</w>": 298,
    "dis": 299,
    "i)</w>": 300,
    "ess</w>": 301,
    "20": 302,
    "__": 303,
    "k</w>": 304,
    "----------------": 305,
    "ance</w>": 306,
    "ign": 307,
    "ations</w>": 308,
    "m</w>": 309,
    "pur": 310,
    "have</w>": 311,
    "2</w>": 312,
    "our": 313,
    "Ex": 314,
    "plic": 315,
    "sub": 316,
    "D</w>": 317,
    "ect</w>": 318,
    "aw": 319,
    "ab": 320,
    "act": 321,
    "[***]</w>": 322,
    "wr": 323,
    "tw": 324,
    "====": 325,
    "RE": 326,
    "termin": 327,
    "arties</w>": 328,
    "reas": 329,
    "ial</w>": 330,
    "op": 331,
    "out</w>": 332,
    "TH": 333,
    "th</w>": 334,
    "ion": 335,
    "OR": 336,
    "reason": 337,
    "10": 338,
    "ty</w>": 339,
    "iz": 340,
    "A</w>": 341,
    "3</w>": 342,
    "each</w>": 343,
    "applic": 344,
    "party</w>": 345,
    "ar</w>": 346,
    "AR": 347,
    "blig": 348,
    "ten": 349,
    "formation</w>": 350,
    "f</w>": 351,
    "Ter": 352,
    "including</w>": 353,
    "L</w>": 354,
    "),</w>": 355,
    "li": 356,
    "mean": 357,
    "Y</w>": 358,
    "od": 359,
    "ally</w>": 360,
    "ant</w>": 361,
    "ts,</w>": 362,
    "oblig": 363,
    "oll": 364,
    "-</w>": 365,
    "oun": 366,
    "af": 367,
    "Ser": 368,
    "usin": 369,
    "to": 370,
    "4</w>": 371,
    "fiden": 372,
    "set</w>": 373,
    "(i": 374,
    "cep": 375,
    "5</w>": 376,
    "Company</w>": 377,
    "ke": 378,
    "ass": 379,
    "fa": 380,
    "Agreement,</w>": 381,
    "pon": 382,
    "Serv": 383,
    "1</w>": 384,
    "00": 385,
    "Product</w>": 386,
    "y.</w>": 387,
    "ge</w>": 388,
    "TION": 389,
    "writ": 390,
    "uthor": 391,
    "ject</w>": 392,
    "C</w>": 393,
    "LI": 394,
    "dition": 395,
    "written</w>": 396,
    "cur": 397,
    "provided</w>": 398,
    "perfor": 399,
    "OF": 400,
    "forth</w>": 401,
    "respect</w>": 402,
    "exp": 403,
    "Part": 404,
    "ew": 405,
    "fin": 406,
    "other": 407,
    "trans": 408,
    "serv": 409,
    "Agreement.</w>": 410,
    "ies</w>": 411,
    "ual</w>": 412,
    "ied</w>": 413,
    "ific": 414,
    "Ac": 415,
    "ior</w>": 416,
    "....": 417,
    "and": 418,
    "tain": 419,
    "usiness</w>": 420,
    "Su": 421,
    "pay": 422,
    "tly</w>": 423,
    "(b": 424,
    "go": 425,
    "ven": 426,
    "ye": 427,
    "(a": 428,
    "without</w>": 429,
    "ing,</w>": 430,
    "6</w>": 431,
    "ary</w>": 432,
    "Re": 433,
    "2.": 434,
    "sol": 435,
    "ollow": 436,
    "own": 437,
    "e.</w>": 438,
    "ou": 439,
    "fidential</w>": 440,
    "cr": 441,
    "law": 442,
    "ffec": 443,
    "terms</w>": 444,
    "ther</w>": 445,
    "ain": 446,
    "rights</w>": 447,
    "after</w>": 448,
    "____": 449,
    "provis": 450,
    "applicable</w>": 451,
    "ird</w>": 452,
    "9</w>": 453,
    "demn": 454,
    "AT": 455,
    "spec": 456,
    "contr": 457,
    "1.": 458,
    "follow": 459,
    "MEN": 460,
    "accor": 461,
    "ud": 462,
    ").</w>": 463,
    "empl": 464,
    "pursu": 465,
    "within</w>": 466,
    "right</w>": 467,
    "ship": 468,
    "prior</w>": 469,
    "elop": 470,
    "8</w>": 471,
    "7</w>": 472,
    "gen": 473,
    "otherw": 474,
    "the": 475,
    "pons": 476,
    "information</w>": 477,
    "cla": 478,
    "le": 479,
    "pursuant</w>": 480,
    "been</w>": 481,
    "Aff": 482,
    "(a)</w>": 483,
    "Affili": 484,
    "OF</w>": 485,
    "provide</w>": 486,
    "ranch": 487,
    "ial": 488,
    "ob": 489,
    "oin": 490,
    "3.": 491,
    "0</w>": 492,
    "author": 493,
    "av": 494,
    "notice</w>": 495,
    "mit": 496,
    "means</w>": 497,
    "accord": 498,
    "An": 499,
    "SE": 500,
    "et</w>": 501,
    "comp": 502,
    "(b)</w>": 503,
    "Per": 504,
    "========": 505,
    "either</w>": 506,
    "required</w>": 507,
    "ation,</w>": 508,
    "accordance</w>": 509,
    "reasonable</w>": 510,
    "ments</w>": 511,
    "Ap": 512,
    "ions</w>": 513,
    "obligations</w>": 514,
    "day": 515,
    "cept</w>": 516,
    "AG": 517,
    "Man": 518,
    "Tr": 519,
    "*]</w>": 520,
    "OR</w>": 521,
    "ates</w>": 522,
    "ir</w>": 523,
    "direc": 524,
    "I</w>": 525,
    "min": 526,
    "ref": 527,
    "one</w>": 528,
    "under": 529,
    "part": 530,
    "subject</w>": 531,
    "M</w>": 532,
    "In</w>": 533,
    "date</w>": 534,
    "discl": 535,
    "CH": 536,
    "ufact": 537,
    "mis": 538,
    "um": 539,
    "No": 540,
    "conn": 541,
    "Distr": 542,
    "ack": 543,
    "ute</w>": 544,
    "our</w>": 545,
    "If</w>": 546,
    "Mar": 547,
    "inv": 548,
    "O</w>": 549,
    "ue</w>": 550,
    "Distrib": 551,
    "otherwise</w>": 552,
    "Products</w>": 553,
    "(ii)</w>": 554,
    "ffective</w>": 555,
    "ds</w>": 556,
    "ou</w>": 557,
    "mon": 558,
    "pers": 559,
    "hib": 560,
    "approv": 561,
    "4.": 562,
    "201": 563,
    "Un": 564,
    "x</w>": 565,
    "RO": 566,
    "gr": 567,
    "Franch": 568,
    "sion</w>": 569,
    "ew</w>": 570,
    "Ad": 571,
    "Confidential</w>": 572,
    "connection</w>": 573,
    "--------------------------------": 574,
    "represen": 575,
    "business</w>": 576,
    "during</w>": 577,
    "peri": 578,
    "INC": 579,
    "IC": 580,
    "AND</w>": 581,
    "vern": 582,
    "ical</w>": 583,
    "emplo": 584,
    "ER</w>": 585,
    "IT": 586,
    "arran": 587,
    "days</w>": 588,
    "een</w>": 589,
    "THE</w>": 590,
    "pa": 591,
    "Sour": 592,
    "/or</w>": 593,
    "amoun": 594,
    "En": 595,
    "ks</w>": 596,
    "IB": 597,
    "ed,</w>": 598,
    "Sub": 599,
    "fe": 600,
    "and/or</w>": 601,
    "y's</w>": 602,
    "reasonably</w>": 603,
    "P</w>": 604,
    "their</w>": 605,
    "EX": 606,
    "G</w>": 607,
    "h</w>": 608,
    "AL": 609,
    "ES": 610,
    "following</w>": 611,
    "ified</w>": 612,
    "exec": 613,
    "ED</w>": 614,
    "Trans": 615,
    "*</w>": 616,
    "\")</w>": 617,
    "ability</w>": 618,
    "Al": 619,
    "merc": 620,
    "oftw": 621,
    "termination</w>": 622,
    "assign": 623,
    "material</w>": 624,
    "Dat": 625,
    "ful": 626,
    "ork</w>": 627,
    "Customer</w>": 628,
    "De": 629,
    "og": 630,
    "ce:</w>": 631,
    "Pl": 632,
    "CO": 633,
    "IS": 634,
    "but</w>": 635,
    "agrees</w>": 636,
    "port</w>": 637,
    ".,</w>": 638,
    "regul": 639,
    "Source:</w>": 640,
    "pos": 641,
    "Ar": 642,
    "tween</w>": 643,
    "5.": 644,
    "between</w>": 645,
    "ts.</w>": 646,
    "agree</w>": 647,
    "ether</w>": 648,
    "fir": 649,
    "AC": 650,
    "ecess": 651,
    "necess": 652,
    "sign": 653,
    "(c": 654,
    "pen": 655,
    "ite</w>": 656,
    "extent</w>": 657,
    "This</w>": 658,
    "roug": 659,
    "yst": 660,
    "ard</w>": 661,
    "atory</w>": 662,
    "Cl": 663,
    "MENT</w>": 664,
    "change</w>": 665,
    "doc": 666,
    "(\"": 667,
    "Contr": 668,
    "19": 669,
    "nowled": 670,
    "cons": 671,
    "Agreement": 672,
    "respons": 673,
    "ail": 674,
    "Indemn": 675,
    "As": 676,
    "[***]": 677,
    "except</w>": 678,
    "hibit</w>": 679,
    "so</w>": 680,
    "ee</w>": 681,
    "loc": 682,
    "keting</w>": 683,
    "receiv": 684,
    "ic</w>": 685,
    "Information</w>": 686,
    "breach</w>": 687,
    "ship</w>": 688,
    "related</w>": 689,
    "oint</w>": 690,
    "develop": 691,
    "(the</w>": 692,
    "tained</w>": 693,
    "Ban": 694,
    "pu": 695,
    "necessary</w>": 696,
    "hol": 697,
    "third</w>": 698,
    "form</w>": 699,
    "dic": 700,
    "into</w>": 701,
    "sim": 702,
    "tual</w>": 703,
    "ner</w>": 704,
    "propri": 705,
    "6.": 706,
    "mitted</w>": 707,
    "'</w>": 708,
    "Services</w>": 709,
    "ii)</w>": 710,
    "provisions</w>": 711,
    "ca": 712,
    "tel": 713,
    "ne": 714,
    "(c)</w>": 715,
    "Licensed</w>": 716,
    "authoriz": 717,
    "equ": 718,
    "throug": 719,
    "Law": 720,
    "corpor": 721,
    "........": 722,
    "Distributor</w>": 723,
    "ritor": 724,
    "ges</w>": 725,
    "te</w>": 726,
    "Dis": 727,
    "you</w>": 728,
    "ts": 729,
    "oftware</w>": 730,
    "performance</w>": 731,
    "LE</w>": 732,
    "period</w>": 733,
    "again": 734,
    "ould</w>": 735,
    "[*****]</w>": 736,
    "medi": 737,
    "to,</w>": 738,
    "of,</w>": 739,
    "fur": 740,
    "tellec": 741,
    "tellectual</w>": 742,
    "make</w>": 743,
    "payment</w>": 744,
    "conduc": 745,
    "Pr": 746,
    "services</w>": 747,
    "Exhibit</w>": 748,
    "against</w>": 749,
    "ials</w>": 750,
    "person": 751,
    "Third</w>": 752,
    "non-": 753,
    "deemed</w>": 754,
    "B</w>": 755,
    "Each</w>": 756,
    "Territor": 757,
    "Sch": 758,
    "vi": 759,
    "S,</w>": 760,
    "7.": 761,
    "wor": 762,
    "Effective</w>": 763,
    "adver": 764,
    "UR": 765,
    "inter": 766,
    "cy</w>": 767,
    "avail": 768,
    "PRO": 769,
    "AGRE": 770,
    "relating</w>": 771,
    "Mater": 772,
    "ditional</w>": 773,
    "sion": 774,
    "IG": 775,
    "conditions</w>": 776,
    "Secur": 777,
    "1/": 778,
    "tion,</w>": 779,
    "whether</w>": 780,
    "ying</w>": 781,
    "through</w>": 782,
    "indemn": 783,
    "osing</w>": 784,
    "employe": 785,
    "jur": 786,
    "only</w>": 787,
    "________": 788,
    "Regul": 789,
    "order</w>": 790,
    "anc": 791,
    "n</w>": 792,
    "EL": 793,
    "warran": 794,
    "Agent</w>": 795,
    "i</w>": 796,
    "uc": 797,
    "contin": 798,
    "AGREE": 799,
    "Develop": 800,
    "ST": 801,
    "distrib": 802,
    "fr": 803,
    "For</w>": 804,
    "amount</w>": 805,
    "receip": 806,
    "ATION</w>": 807,
    "(1": 808,
    "more</w>": 809,
    "mod": 810,
    "30": 811,
    "claim": 812,
    "manufact": 813,
    "Manufact": 814,
    "Or": 815,
    "al,</w>": 816,
    "descr": 817,
    "agreed</w>": 818,
    "Pur": 819,
    "All</w>": 820,
    "EC": 821,
    "nolog": 822,
    "echnolog": 823,
    "hereby</w>": 824,
    "================": 825,
    "8.": 826,
    "ow</w>": 827,
    "AB": 828,
    "\"),</w>": 829,
    "accoun": 830,
    "acknowled": 831,
    "ising</w>": 832,
    "defined</w>": 833,
    "Ne": 834,
    "simil": 835,
    "herein": 836,
    "(iii)</w>": 837,
    "oci": 838,
    "abo": 839,
    "s)</w>": 840,
    "bitr": 841,
    "unless</w>": 842,
    "king</w>": 843,
    "Pers": 844,
    "meaning</w>": 845,
    "exclus": 846,
    "promp": 847,
    "uring</w>": 848,
    "commerc": 849,
    "similar</w>": 850,
    "all": 851,
    "AP": 852,
    "ID": 853,
    "Group": 854,
    "ment,</w>": 855,
    "Qu": 856,
    "mun": 857,
    "TO</w>": 858,
    "Term": 859,
    "month": 860,
    "Cor": 861,
    "first</w>": 862,
    "Go": 863,
    "directly</w>": 864,
    "(d": 865,
    "Any</w>": 866,
    "tt": 867,
    "ings</w>": 868,
    "faul": 869,
    "isdic": 870,
    "RAN": 871,
    "same</w>": 872,
    "Co": 873,
    "receipt</w>": 874,
    "paid</w>": 875,
    "mental</w>": 876,
    "Bank</w>": 877,
    "10.": 878,
    "UN": 879,
    "eld</w>": 880,
    "lo": 881,
    "MENT": 882,
    "Business</w>": 883,
    "respective</w>": 884,
    "available</w>": 885,
    "Righ": 886,
    "Securities</w>": 887,
    "Development</w>": 888,
    "ED": 889,
    "S.</w>": 890,
    "responsible</w>": 891,
    "tify</w>": 892,
    "hereunder</w>": 893,
    "bin": 894,
    "must</w>": 895,
    "good</w>": 896,
    "benef": 897,
    "istration</w>": 898,
    "IN</w>": 899,
    "Sh": 900,
    "do": 901,
    "issu": 902,
    "ep": 903,
    "would</w>": 904,
    ",00": 905,
    "Chan": 906,
    "promo": 907,
    "delivery</w>": 908,
    "appropri": 909,
    "request</w>": 910,
    "govern": 911,
    "A,</w>": 912,
    "incur": 913,
    "jurisdic": 914,
    "app": 915,
    "\").</w>": 916,
    "Software</w>": 917,
    "PAR": 918,
    "obligation</w>": 919,
    "Stat": 920,
    "eb": 921,
    "SU": 922,
    "Affiliates</w>": 923,
    "wa": 924,
    "arising</w>": 925,
    "Inc": 926,
    "ear": 927,
    "-1": 928,
    "terminate</w>": 929,
    "entit": 930,
    "behal": 931,
    "laws</w>": 932,
    "(or</w>": 933,
    "cont": 934,
    "Suppli": 935,
    "Author": 936,
    "(e": 937,
    "liability</w>": 938,
    "INC.,</w>": 939,
    "ty": 940,
    "Page</w>": 941,
    "enfor": 942,
    "s:</w>": 943,
    "property</w>": 944,
    "Pay": 945,
    "MP": 946,
    "authorized</w>": 947,
    "your</w>": 948,
    "Affiliat": 949,
    "filed</w>": 950,
    "inc": 951,
    "ING</w>": 952,
    "hereunder": 953,
    "Cla": 954,
    "promptly</w>": 955,
    "cess": 956,
    "TER": 957,
    "we</w>": 958,
    "effor": 959,
    "does</w>": 960,
    "accep": 961,
    "legal</w>": 962,
    "Ow": 963,
    "immedi": 964,
    "sale</w>": 965,
    "Ven": 966,
    "those</w>": 967,
    "dar</w>": 968,
    "effective</w>": 969,
    "ation.</w>": 970,
    "ancial</w>": 971,
    "Manag": 972,
    "Intellectual</w>": 973,
    "Commis": 974,
    "cause</w>": 975,
    "Schedule</w>": 976,
    "tenance</w>": 977,
    "additional</w>": 978,
    "behalf</w>": 979,
    "(d)</w>": 980,
    "failure</w>": 981,
    "approval</w>": 982,
    "twithstanding</w>": 983,
    "s;</w>": 984,
    "expir": 985,
    "Customer": 986,
    "-K": 987,
    "result</w>": 988,
    "d,</w>": 989,
    "ystem": 990,
    "k,</w>": 991,
    "purchase</w>": 992,
    "Ver": 993,
    "add": 994,
    "9.": 995,
    "Agen": 996,
    "IBM</w>": 997,
    "For": 998,
    "ations,</w>": 999,
    "tur": 1000,
    "arbitr": 1001,
    "ET": 1002,
    "Property</w>": 1003,
    "[*]</w>": 1004,
    "Oper": 1005,
    "ien": 1006,
    "WH": 1007,
    "purposes</w>": 1008,
    "AS</w>": 1009,
    "how": 1010,
    "effect</w>": 1011,
    "confidential</w>": 1012,
    "dr": 1013,
    "described</w>": 1014,
    "Regulatory</w>": 1015,
    "permitted</w>": 1016,
    "erc": 1017,
    "ever,</w>": 1018,
    "products</w>": 1019,
    "based</w>": 1020,
    "specified</w>": 1021,
    "regar": 1022,
    "ie": 1023,
    "ders</w>": 1024,
    "num": 1025,
    "operation</w>": 1026,
    "Exchange</w>": 1027,
    "ually</w>": 1028,
    "imum</w>": 1029,
    "ANY</w>": 1030,
    "Trademar": 1031,
    "NO": 1032,
    "Act</w>": 1033,
    "transfer</w>": 1034,
    "yal": 1035,
    "when</w>": 1036,
    "aud": 1037,
    "2)</w>": 1038,
    "United</w>": 1039,
    "fees</w>": 1040,
    "bas": 1041,
    "occur": 1042,
    "maintain</w>": 1043,
    "given</w>": 1044,
    "/</w>": 1045,
    "thir": 1046,
    "Commerc": 1047,
    "3/": 1048,
    "MS": 1049,
    "notify</w>": 1050,
    "AGREEMENT</w>": 1051,
    "take</w>": 1052,
    "Bo": 1053,
    "You</w>": 1054,
    "granted</w>": 1055,
    "full</w>": 1056,
    "St": 1057,
    "manag": 1058,
    "associ": 1059,
    "immediately</w>": 1060,
    "data</w>": 1061,
    "Date,</w>": 1062,
    "AI": 1063,
    "Licensee</w>": 1064,
    "Technolog": 1065,
    "gu": 1066,
    "efforts</w>": 1067,
    "y:</w>": 1068,
    "sly</w>": 1069,
    "exerc": 1070,
    "fun": 1071,
    ");</w>": 1072,
    "expressly</w>": 1073,
    "ENTI": 1074,
    "expiration</w>": 1075,
    "ued</w>": 1076,
    "requirements</w>": 1077,
    "hereto</w>": 1078,
    "Wor": 1079,
    "Group</w>": 1080,
    "public</w>": 1081,
    "compliance</w>": 1082,
    "ARTIC": 1083,
    "further</w>": 1084,
    "tz": 1085,
    "ify</w>": 1086,
    "LO": 1087,
    "po": 1088,
    "ARTICLE</w>": 1089,
    "Equ": 1090,
    "contractor": 1091,
    "conduct</w>": 1092,
    "who</w>": 1093,
    "inten": 1094,
    "commun": 1095,
    "-K,</w>": 1096,
    "Amer": 1097,
    "TION</w>": 1098,
    "Prospect": 1099,
    "ks,</w>": 1100,
    "incurred</w>": 1101,
    "Notwithstanding</w>": 1102,
    "ational</w>": 1103,
    "received</w>": 1104,
    "instr": 1105,
    "ys": 1106,
    "product</w>": 1107,
    "Inter": 1108,
    "ix</w>": 1109,
    "requested</w>": 1110,
    "Joint</w>": 1111,
    "law</w>": 1112,
    "Purchase</w>": 1113,
    "rup": 1114,
    "Article</w>": 1115,
    "Ch": 1116,
    "defaul": 1117,
    "Approv": 1118,
    "ee": 1119,
    "confiden": 1120,
    "A.</w>": 1121,
    "manner</w>": 1122,
    "payments</w>": 1123,
    "infor": 1124,
    "DE": 1125,
    "Car": 1126,
    "cum": 1127,
    "Peri": 1128,
    "materials</w>": 1129,
    "scr": 1130,
    "executed</w>": 1131,
    "val": 1132,
    "right,</w>": 1133,
    "amounts</w>": 1134,
    "12": 1135,
    "least</w>": 1136,
    "LL": 1137,
    "jec": 1138,
    "viol": 1139,
    "end</w>": 1140,
    "echn": 1141,
    "US": 1142,
    "11.": 1143,
    "support</w>": 1144,
    "Spons": 1145,
    "enter</w>": 1146,
    "appropriate</w>": 1147,
    "authority</w>": 1148,
    "ind": 1149,
    "AM": 1150,
    "being</w>": 1151,
    "sales</w>": 1152,
    "invo": 1153,
    "financial</w>": 1154,
    "reach": 1155,
    "form": 1156,
    "Tit": 1157,
    "trade</w>": 1158,
    "K</w>": 1159,
    "Gener": 1160,
    "exclusive</w>": 1161,
    "PH": 1162,
    "ifying</w>": 1163,
    "success": 1164,
    "trademar": 1165,
    "access</w>": 1166,
    "contempl": 1167,
    "ia</w>": 1168,
    "Cer": 1169,
    "Company,</w>": 1170,
    "pin": 1171,
    "approved</w>": 1172,
    "infr": 1173,
    "tional</w>": 1174,
    "ON</w>": 1175,
    "prot": 1176,
    "operate</w>": 1177,
    "constitute</w>": 1178,
    "insurance</w>": 1179,
    "THIS</w>": 1180,
    "U.": 1181,
    "QU": 1182,
    "ipment</w>": 1183,
    "CE</w>": 1184,
    "2020</w>": 1185,
    "ban": 1186,
    "acqu": 1187,
    "Franchisee</w>": 1188,
    "up</w>": 1189,
    "TY</w>": 1190,
    "t's</w>": 1191,
    "contemplated</w>": 1192,
    "he": 1193,
    "Sel": 1194,
    "vo": 1195,
    "entitled</w>": 1196,
    "SH": 1197,
    "1,</w>": 1198,
    "retur": 1199,
    "Ass": 1200,
    "eng": 1201,
    "gan": 1202,
    "ix": 1203,
    "Mon": 1204,
    "ning</w>": 1205,
    "Time</w>": 1206,
    "both</w>": 1207,
    "IP</w>": 1208,
    "Territory</w>": 1209,
    "Upon</w>": 1210,
    "relevant</w>": 1211,
    "however,</w>": 1212,
    "ill": 1213,
    "Paten": 1214,
    "CE": 1215,
    "conf": 1216,
    "R</w>": 1217,
    "Person": 1218,
    "coven": 1219,
    "CONF": 1220,
    "Inc.</w>": 1221,
    "agrap": 1222,
    "they</w>": 1223,
    "number</w>": 1224,
    "Spin": 1225,
    "Ma": 1226,
    "tzel</w>": 1227,
    "igin": 1228,
    "thereof</w>": 1229,
    "Pretzel</w>": 1230,
    "tax": 1231,
    "bur": 1232,
    "bo": 1233,
    "current</w>": 1234,
    "%</w>": 1235,
    "VER": 1236,
    "director": 1237,
    "continue</w>": 1238,
    "sett": 1239,
    "V</w>": 1240,
    "License</w>": 1241,
    "including,</w>": 1242,
    "jurisdiction</w>": 1243,
    "On": 1244,
    "(1)</w>": 1245,
    "obtain</w>": 1246,
    "TS</w>": 1247,
    "ment.</w>": 1248,
    "(s)</w>": 1249,
    "C.</w>": 1250,
    "Termination</w>": 1251,
    "By:</w>": 1252,
    "copy</w>": 1253,
    "tion.</w>": 1254,
    "atment</w>": 1255,
    "commen": 1256,
    "thirty</w>": 1257,
    "Plan": 1258,
    "MM": 1259,
    "ganiz": 1260,
    "fully</w>": 1261,
    "Sec": 1262,
    "abov": 1263,
    "udg": 1264,
    "................": 1265,
    "Date": 1266,
    "affili": 1267,
    "court</w>": 1268,
    "representativ": 1269,
    "FOR</w>": 1270,
    "Ship": 1271,
    "mut": 1272,
    "...": 1273,
    "EN</w>": 1274,
    "TR": 1275,
    "Agreement;</w>": 1276,
    "associated</w>": 1277,
    "hold</w>": 1278,
    "before</w>": 1279,
    "regarding</w>": 1280,
    "WHERE": 1281,
    "Spec": 1282,
    "transfer": 1283,
    "50": 1284,
    "WITH": 1285,
    "countr": 1286,
    "Li": 1287,
    "PER": 1288,
    "CONFIDENTI": 1289,
    "ly,</w>": 1290,
    "also</w>": 1291,
    "(30": 1292,
    "purpose</w>": 1293,
    "mutually</w>": 1294,
    "certain</w>": 1295,
    "Im": 1296,
    "Fun": 1297,
    "substan": 1298,
    "marketing</w>": 1299,
    "HIB": 1300,
    "effec": 1301,
    "responsib": 1302,
    "Ro": 1303,
    "UT": 1304,
    "Company's</w>": 1305,
    "EXHIB": 1306,
    "Except</w>": 1307,
    "officer": 1308,
    "(30)</w>": 1309,
    "amend": 1310,
    "nual</w>": 1311,
    "until</w>": 1312,
    "----------------------------------------------------------------": 1313,
    "[***].</w>": 1314,
    "ate,</w>": 1315,
    "Contract</w>": 1316,
    "separately</w>": 1317,
    "ell</w>": 1318,
    "Exc": 1319,
    "regulatory</w>": 1320,
    "24": 1321,
    "13.": 1322,
    "Applicable</w>": 1323,
    "idi": 1324,
    "faith</w>": 1325,
    "customer": 1326,
    "referred</w>": 1327,
    "5)</w>": 1328,
    "IP": 1329,
    "Transpor": 1330,
    "negoti": 1331,
    "SO": 1332,
    "ffic": 1333,
    "EXHIBIT</w>": 1334,
    "payable</w>": 1335,
    "14.": 1336,
    "F</w>": 1337,
    "Indemnified</w>": 1338,
    "Exec": 1339,
    "Is": 1340,
    "X</w>": 1341,
    "governmental</w>": 1342,
    "compe": 1343,
    "Bu": 1344,
    "FOR": 1345,
    "organiz": 1346,
    "techn": 1347,
    "&</w>": 1348,
    "Mil": 1349,
    "t;</w>": 1350,
    "BI": 1351,
    "sidi": 1352,
    "0)</w>": 1353,
    ".com</w>": 1354,
    "or,</w>": 1355,
    "satis": 1356,
    "consider": 1357,
    "MSL</w>": 1358,
    "MIT": 1359,
    "(iv)</w>": 1360,
    "Me": 1361,
    "(2)</w>": 1362,
    "Le": 1363,
    "benefit</w>": 1364,
    "Milten": 1365,
    "calendar</w>": 1366,
    "Milteny": 1367,
    "restric": 1368,
    "(e)</w>": 1369,
    "price</w>": 1370,
    "-H": 1371,
    "Rights</w>": 1372,
    "require</w>": 1373,
    "furn": 1374,
    "General</w>": 1375,
    "(3": 1376,
    "ph": 1377,
    "Network</w>": 1378,
    "SP": 1379,
    "4,</w>": 1380,
    "determined</w>": 1381,
    "cing</w>": 1382,
    "records</w>": 1383,
    "carr": 1384,
    "two</w>": 1385,
    "Registration</w>": 1386,
    "OC": 1387,
    "d.</w>": 1388,
    "exercise</w>": 1389,
    "acknowledges</w>": 1390,
    "a,</w>": 1391,
    "version</w>": 1392,
    "Stud": 1393,
    "of.</w>": 1394,
    "/s": 1395,
    "advertising</w>": 1396,
    "Corpor": 1397,
    "cover": 1398,
    "Initial</w>": 1399,
    "Site</w>": 1400,
    "Sales</w>": 1401,
    "y-": 1402,
    "Program</w>": 1403,
    "ight</w>": 1404,
    "io": 1405,
    "so": 1406,
    "months</w>": 1407,
    "standar": 1408,
    "intellectual</w>": 1409,
    "pe</w>": 1410,
    "W</w>": 1411,
    "CL": 1412,
    "Contractor</w>": 1413,
    "Sit": 1414,
    "default</w>": 1415,
    "AT&": 1416,
    "construed</w>": 1417,
    "Payment</w>": 1418,
    "plan": 1419,
    "AF": 1420,
    "Materials</w>": 1421,
    "UL": 1422,
    "princ": 1423,
    "claims</w>": 1424,
    "cir": 1425,
    "origin": 1426,
    "waiver</w>": 1427,
    "je": 1428,
    "SpinCo</w>": 1429,
    "BE": 1430,
    "Fin": 1431,
    "Clinical</w>": 1432,
    "8-K,</w>": 1433,
    "any": 1434,
    "regulations</w>": 1435,
    "krup": 1436,
    "system": 1437,
    "program": 1438,
    "Product,</w>": 1439,
    "power</w>": 1440,
    "together</w>": 1441,
    "ownership</w>": 1442,
    "Subject</w>": 1443,
    "force</w>": 1444,
    "existing</w>": 1445,
    "cul": 1446,
    "Warran": 1447,
    "2,</w>": 1448,
    "PO": 1449,
    "/s/</w>": 1450,
    "specific</w>": 1451,
    "imbur": 1452,
    "conflic": 1453,
    "Dr": 1454,
    "With": 1455,
    "ministr": 1456,
    "WAR": 1457,
    "Govern": 1458,
    "Fac": 1459,
    "sit": 1460,
    "covenan": 1461,
    "ax": 1462,
    "scrip": 1463,
    "SERV": 1464,
    "partner": 1465,
    "liab": 1466,
    "Hol": 1467,
    "follows:</w>": 1468,
    "infring": 1469,
    "Name": 1470,
    "basis</w>": 1471,
    "supply</w>": 1472,
    "din": 1473,
    "U.S.</w>": 1474,
    "3,</w>": 1475,
    "development</w>": 1476,
    "193": 1477,
    "continu": 1478,
    "proprietary</w>": 1479,
    "Accoun": 1480,
    "t\"</w>": 1481,
    "Commission": 1482,
    "account</w>": 1483,
    "shall,</w>": 1484,
    "name</w>": 1485,
    "WITH</w>": 1486,
    "INC,</w>": 1487,
    "Committ": 1488,
    "Statement</w>": 1489,
    "knowled": 1490,
    "Marks</w>": 1491,
    "11</w>": 1492,
    "busines": 1493,
    "Miltenyi</w>": 1494,
    "entered</w>": 1495,
    "respon": 1496,
    "reference</w>": 1497,
    "mission</w>": 1498,
    "14": 1499,
    "five</w>": 1500,
    "================================": 1501,
    "He": 1502,
    "securities</w>": 1503,
    "WARRAN": 1504,
    "Franchise</w>": 1505,
    "-B": 1506,
    "three</w>": 1507,
    "C,</w>": 1508,
    "execution</w>": 1509,
    "Inv": 1510,
    "Application</w>": 1511,
    "Title": 1512,
    "place</w>": 1513,
    "##": 1514,
    "member": 1515,
    "reimbur": 1516,
    "e-": 1517,
    "Franchised</w>": 1518,
    "adv": 1519,
    "herein,</w>": 1520,
    "Har": 1521,
    "8/": 1522,
    "Name:</w>": 1523,
    "BY</w>": 1524,
    "To</w>": 1525,
    "contract</w>": 1526,
    "AD": 1527,
    "CONFIDENTIAL</w>": 1528,
    ",000</w>": 1529,
    "s\"</w>": 1530,
    "charg": 1531,
    "royal": 1532,
    "II": 1533,
    "(3)</w>": 1534,
    "assignment</w>": 1535,
    "Force</w>": 1536,
    "transactions</w>": 1537,
    "commercially</w>": 1538,
    "Promo": 1539,
    "Supply</w>": 1540,
    "independent</w>": 1541,
    "attorne": 1542,
    "DU": 1543,
    "Vertical": 1544,
    "Marketing</w>": 1545,
    "changes</w>": 1546,
    "ics</w>": 1547,
    "statement</w>": 1548,
    "copies</w>": 1549,
    "electron": 1550,
    "Owner</w>": 1551,
    "law,</w>": 1552,
    "Title:</w>": 1553,
    "Pu": 1554,
    "krupt": 1555,
    "hour": 1556,
    "circum": 1557,
    "Web": 1558,
    "(6": 1559,
    "harm": 1560,
    "rights,</w>": 1561,
    "give</w>": 1562,
    "terminated</w>": 1563,
    "Vendor</w>": 1564,
    "confidentiality</w>": 1565,
    "registered</w>": 1566,
    "________________": 1567,
    "designated</w>": 1568,
    "commercial</w>": 1569,
    "Adver": 1570,
    "Sections</w>": 1571,
    "warrants</w>": 1572,
    "d-": 1573,
    "Material</w>": 1574,
    "System</w>": 1575,
    "complete</w>": 1576,
    "dispute</w>": 1577,
    "SF": 1578,
    "over</w>": 1579,
    "Owner": 1580,
    "Receiving</w>": 1581,
    "SI": 1582,
    "enter": 1583,
    "damages</w>": 1584,
    "hereunder,</w>": 1585,
    "market</w>": 1586,
    "general</w>": 1587,
    "later</w>": 1588,
    "17": 1589,
    "copy": 1590,
    "tively,</w>": 1591,
    "Year</w>": 1592,
    "B.</w>": 1593,
    "N</w>": 1594,
    "title</w>": 1595,
    "15.": 1596,
    "15</w>": 1597,
    "ger</w>": 1598,
    "dated</w>": 1599,
    "DI": 1600,
    "FI": 1601,
    "assets</w>": 1602,
    "f)</w>": 1603,
    "ordin": 1604,
    "value</w>": 1605,
    "adj": 1606,
    "posses": 1607,
    "damag": 1608,
    "Term,</w>": 1609,
    "als</w>": 1610,
    ",000": 1611,
    "199": 1612,
    "order": 1613,
    "GO": 1614,
    "concer": 1615,
    "Products,</w>": 1616,
    "Seller</w>": 1617,
    "acknowledge</w>": 1618,
    "%)</w>": 1619,
    "Order</w>": 1620,
    "release</w>": 1621,
    "BEEN</w>": 1622,
    "COMP": 1623,
    "ials,</w>": 1624,
    "Distributor": 1625,
    "ATIONS</w>": 1626,
    "Bel": 1627,
    "sidiar": 1628,
    "meth": 1629,
    "Carr": 1630,
    "chang": 1631,
    "thereof,</w>": 1632,
    "Jan": 1633,
    "Prospectus</w>": 1634,
    "HAS</w>": 1635,
    "judg": 1636,
    "TED</w>": 1637,
    "America</w>": 1638,
    "tions,</w>": 1639,
    "21</w>": 1640,
    "results</w>": 1641,
    "16": 1642,
    "CHAN": 1643,
    "utes</w>": 1644,
    "Project</w>": 1645,
    "AGREEMENT": 1646,
    "marke": 1647,
    "management</w>": 1648,
    "During</w>": 1649,
    "were</w>": 1650,
    "portion</w>": 1651,
    "counsel</w>": 1652,
    "15": 1653,
    "Commercializ": 1654,
    "consideration</w>": 1655,
    "well</w>": 1656,
    "AS,</w>": 1657,
    "OTH": 1658,
    "Par": 1659,
    "substantially</w>": 1660,
    "ds,</w>": 1661,
    "*]": 1662,
    "covenants</w>": 1663,
    "Claim": 1664,
    "PL": 1665,
    "VE</w>": 1666,
    "emp": 1667,
    "represents</w>": 1668,
    "national</w>": 1669,
    "10-": 1670,
    "a.</w>": 1671,
    "agents</w>": 1672,
    "System": 1673,
    "Maje": 1674,
    "Disclosing</w>": 1675,
    "Change</w>": 1676,
    "developed</w>": 1677,
    "final</w>": 1678,
    "technical</w>": 1679,
    "Direc": 1680,
    "ceable</w>": 1681,
    "distribution</w>": 1682,
    "Issu": 1683,
    "[***],</w>": 1684,
    "br": 1685,
    "WHEREAS,</w>": 1686,
    "AS": 1687,
    "A)</w>": 1688,
    "displ": 1689,
    "defense</w>": 1690,
    "DOC": 1691,
    "Sk": 1692,
    "aboration</w>": 1693,
    "Technology</w>": 1694,
    "---</w>": 1695,
    "cooperate</w>": 1696,
    "hereof</w>": 1697,
    "conducted</w>": 1698,
    "Attach": 1699,
    "func": 1700,
    "representatives</w>": 1701,
    "poss": 1702,
    "outside</w>": 1703,
    "taken</w>": 1704,
    "'S</w>": 1705,
    "initial</w>": 1706,
    "EF": 1707,
    "return</w>": 1708,
    "disc": 1709,
    "Royal": 1710,
    "statements</w>": 1711,
    "Rule</w>": 1712,
    "uction</w>": 1713,
    "specifically</w>": 1714,
    "ESS</w>": 1715,
    "suffic": 1716,
    "Indemnifying</w>": 1717,
    "investig": 1718,
    "13</w>": 1719,
    "Op": 1720,
    "sold</w>": 1721,
    "Stock</w>": 1722,
    "curren": 1723,
    "Other</w>": 1724,
    "Calen": 1725,
    "Calendar</w>": 1726,
    "ized</w>": 1727,
    "subsequ": 1728,
    "quan": 1729,
    "Mob": 1730,
    "quality</w>": 1731,
    "Law</w>": 1732,
    "s'</w>": 1733,
    "calcul": 1734,
    "VerticalNet</w>": 1735,
    "Ab": 1736,
    "fails</w>": 1737,
    "PR": 1738,
    "[</w>": 1739,
    "electronic</w>": 1740,
    "hereunder.</w>": 1741,
    "tly,</w>": 1742,
    "Fee</w>": 1743,
    "Se": 1744,
    "port": 1745,
    "unreasonably</w>": 1746,
    "pe": 1747,
    "remo": 1748,
    "ations.</w>": 1749,
    "(x": 1750,
    "MIN": 1751,
    "Know": 1752,
    "J</w>": 1753,
    "contractors</w>": 1754,
    "cy,</w>": 1755,
    "aid</w>": 1756,
    "Commission.</w>": 1757,
    "Transfer": 1758,
    "ietary</w>": 1759,
    "treatment</w>": 1760,
    "violation</w>": 1761,
    "JO": 1762,
    "over": 1763,
    "Trademarks</w>": 1764,
    "settlement</w>": 1765,
    "discus": 1766,
    "(f)</w>": 1767,
    "equipment</w>": 1768,
    "officers,</w>": 1769,
    "ved</w>": 1770,
    "NC": 1771,
    "credit</w>": 1772,
    "responsibility</w>": 1773,
    "Proprietary</w>": 1774,
    "rate</w>": 1775,
    "relation": 1776,
    "DA</w>": 1777,
    "exclusiv": 1778,
    "Y,</w>": 1779,
    "years</w>": 1780,
    "security</w>": 1781,
    "GE</w>": 1782,
    "Offer": 1783,
    "2.2</w>": 1784,
    "rules</w>": 1785,
    "arbitration</w>": 1786,
    ",\"</w>": 1787,
    "audit</w>": 1788,
    "remedy</w>": 1789,
    "2/": 1790,
    "country</w>": 1791,
    "pd": 1792,
    "MH": 1793,
    "thing</w>": 1794,
    "unc": 1795,
    "Additional</w>": 1796,
    "directors,</w>": 1797,
    "Patents</w>": 1798,
    "Product.</w>": 1799,
    "Min": 1800,
    "(B": 1801,
    "2018</w>": 1802,
    "GS": 1803,
    "aggreg": 1804,
    "IGER</w>": 1805,
    "ww": 1806,
    "nal</w>": 1807,
    "Affiliates,</w>": 1808,
    "identified</w>": 1809,
    "corporation</w>": 1810,
    "clause</w>": 1811,
    "CH</w>": 1812,
    "User</w>": 1813,
    "It</w>": 1814,
    "promotional</w>": 1815,
    "tory</w>": 1816,
    "LE": 1817,
    "intended</w>": 1818,
    "training</w>": 1819,
    "Consul": 1820,
    "Field</w>": 1821,
    "harmless</w>": 1822,
    "conflict</w>": 1823,
    "Cap": 1824,
    "thre": 1825,
    "loss</w>": 1826,
    "Fo": 1827,
    "Sky": 1828,
    "PARTY</w>": 1829,
    "40": 1830,
    "junc": 1831,
    "v)</w>": 1832,
    "grants</w>": 1833,
    "10-Q": 1834,
    "Receiv": 1835,
    "DOCU": 1836,
    "MO": 1837,
    "Board</w>": 1838,
    "XX": 1839,
    "DUC": 1840,
    "resulting</w>": 1841,
    "Mis": 1842,
    "item": 1843,
    "INT": 1844,
    "Gu": 1845,
    "ve": 1846,
    "consistent</w>": 1847,
    "to:</w>": 1848,
    "TIES</w>": 1849,
    "Authority</w>": 1850,
    "Corporation</w>": 1851,
    "PB</w>": 1852,
    "execute</w>": 1853,
    "total</w>": 1854,
    "Collaboration</w>": 1855,
    "standards</w>": 1856,
    "Support</w>": 1857,
    "caused</w>": 1858,
    "Unit</w>": 1859,
    "quid": 1860,
    "Order": 1861,
    "incorporated</w>": 1862,
    "minimum</w>": 1863,
    "Management</w>": 1864,
    "Content</w>": 1865,
    "afety</w>": 1866,
    "joint</w>": 1867,
    "invoice</w>": 1868,
    "JS": 1869,
    "Non-": 1870,
    "Governmental</w>": 1871,
    "to.</w>": 1872,
    "Study</w>": 1873,
    "Know-H": 1874,
    "Arr": 1875,
    "filing</w>": 1876,
    "AT&T</w>": 1877,
    "amendment</w>": 1878,
    "registration</w>": 1879,
    "idance</w>": 1880,
    "Customer's</w>": 1881,
    "delay</w>": 1882,
    "condition</w>": 1883,
    "Cr": 1884,
    "18</w>": 1885,
    "concerning</w>": 1886,
    "Metav": 1887,
    "Metavan": 1888,
    "anything</w>": 1889,
    "indemnify</w>": 1890,
    "advance</w>": 1891,
    "var": 1892,
    "We</w>": 1893,
    "EM": 1894,
    "arant": 1895,
    "Excite</w>": 1896,
    "interpre": 1897,
    "Sale</w>": 1898,
    "REQU": 1899,
    "clinical</w>": 1900,
    "permit</w>": 1901,
    "t-": 1902,
    "18": 1903,
    "Products.</w>": 1904,
    "quarter": 1905,
    "5/": 1906,
    "ars</w>": 1907,
    "stock</w>": 1908,
    "13": 1909,
    "Harpo": 1910,
    "Program": 1911,
    "worl": 1912,
    "Em": 1913,
    "ship,</w>": 1914,
    "TU": 1915,
    "(5)</w>": 1916,
    "Transaction</w>": 1917,
    "k.</w>": 1918,
    "b</w>": 1919,
    "HO": 1920,
    "after": 1921,
    "hereof,</w>": 1922,
    "matters</w>": 1923,
    "Annual</w>": 1924,
    "Abb": 1925,
    "AbbV": 1926,
    "fif": 1927,
    "operating</w>": 1928,
    "Attachment</w>": 1929,
    "Amen": 1930,
    "P,</w>": 1931,
    "file</w>": 1932,
    "arrang": 1933,
    "At</w>": 1934,
    "VEN": 1935,
    "contrib": 1936,
    "yn": 1937,
    "retain</w>": 1938,
    "alth</w>": 1939,
    "t)</w>": 1940,
    "ENER": 1941,
    "nature</w>": 1942,
    "FORM": 1943,
    "making</w>": 1944,
    "warranties</w>": 1945,
    "(other</w>": 1946,
    "acceptable</w>": 1947,
    "members</w>": 1948,
    "taxes</w>": 1949,
    "customers</w>": 1950,
    "Equipment</w>": 1951,
    "administr": 1952,
    "ug</w>": 1953,
    "sam": 1954,
    "DOCUMENT": 1955,
    "counter": 1956,
    "te": 1957,
    "FM": 1958,
    "Mo": 1959,
    "ing.</w>": 1960,
    "PRODUC": 1961,
    "Bl": 1962,
    "OTHER</w>": 1963,
    "should</w>": 1964,
    "Delivery</w>": 1965,
    "Aud": 1966,
    "Commercial</w>": 1967,
    "request,</w>": 1968,
    "particular</w>": 1969,
    "------------------------": 1970,
    "ivers": 1971,
    "#</w>": 1972,
    "warranty</w>": 1973,
    "60</w>": 1974,
    "paragraph</w>": 1975,
    "determine</w>": 1976,
    "Fund</w>": 1977,
    "generally</w>": 1978,
    "Air": 1979,
    "Emplo": 1980,
    "future</w>": 1981,
    "Ph": 1982,
    "Reseller</w>": 1983,
    "Skype</w>": 1984,
    "(v)</w>": 1985,
    "ink": 1986,
    "Co-B": 1987,
    "personnel</w>": 1988,
    "(s": 1989,
    "(A)</w>": 1990,
    "survive</w>": 1991,
    "portun": 1992,
    "kruptcy</w>": 1993,
    "3.2</w>": 1994,
    "Disclosure</w>": 1995,
    "Executive</w>": 1996,
    "implemen": 1997,
    "boo": 1998,
    "PUR": 1999,
    "27": 2000,
    "herein.</w>": 2001,
    "PROV": 2002,
    "Documen": 2003,
    "policies</w>": 2004,
    "SFJ</w>": 2005,
    "T,</w>": 2006,
    "Territory.</w>": 2007,
    "ments,</w>": 2008,
    "obtained</w>": 2009,
    "alter": 2010,
    "with,</w>": 2011,
    "yment</w>": 2012,
    "Online</w>": 2013,
    "lobal</w>": 2014,
    "ge": 2015,
    "indirectly,</w>": 2016,
    "To": 2017,
    "Commercialization</w>": 2018,
    "10-Q,</w>": 2019,
    "claims,</w>": 2020,
    "negligen": 2021,
    "circumstances</w>": 2022,
    "11/": 2023,
    "poten": 2024,
    "materially</w>": 2025,
    "said</w>": 2026,
    "Partner": 2027,
    "g)</w>": 2028,
    "submit</w>": 2029,
    "M&": 2030,
    "(4": 2031,
    "not,</w>": 2032,
    "hours</w>": 2033,
    "22</w>": 2034,
    "NESS</w>": 2035,
    "SS</w>": 2036,
    "Use</w>": 2037,
    "federal</w>": 2038,
    "individual</w>": 2039,
    "giving</w>": 2040,
    "Princ": 2041,
    "means,</w>": 2042,
    "fulf": 2043,
    "correspon": 2044,
    "Adden": 2045,
    "laws,</w>": 2046,
    "common</w>": 2047,
    "Shipper</w>": 2048,
    "Therav": 2049,
    "discretion,</w>": 2050,
    "D.</w>": 2051,
    "doub": 2052,
    "Los": 2053,
    "his</w>": 2054,
    "Notice</w>": 2055,
    "[***])</w>": 2056,
    "capacity</w>": 2057,
    "ht</w>": 2058,
    "documentation</w>": 2059,
    "Eng": 2060,
    "AMAG": 2061,
    "Gink": 2062,
    "possession</w>": 2063,
    "relationship</w>": 2064,
    "otherwise,</w>": 2065,
    "subsequent</w>": 2066,
    "avoidance</w>": 2067,
    "(B)</w>": 2068,
    "CONTR": 2069,
    "keep</w>": 2070,
    "anal": 2071,
    "entire</w>": 2072,
    "sufficient</w>": 2073,
    "annual</w>": 2074,
    "IGH": 2075,
    "alth": 2076,
    "01</w>": 2077,
    "adverse</w>": 2078,
    "COMM": 2079,
    "Laws</w>": 2080,
    "Bellicum</w>": 2081,
    "Roundup</w>": 2082,
    "***...": 2083,
    "Amend": 2084,
    "submitted</w>": 2085,
    "UNDER</w>": 2086,
    "User": 2087,
    "Operator</w>": 2088,
    "instruc": 2089,
    "25": 2090,
    "knowledge</w>": 2091,
    "ECT</w>": 2092,
    "ZZ": 2093,
    "Provider</w>": 2094,
    "p</w>": 2095,
    "U</w>": 2096,
    "initi": 2097,
    "IAL</w>": 2098,
    "King</w>": 2099,
    "among</w>": 2100,
    "Acqu": 2101,
    "[...": 2102,
    "Sanof": 2103,
    "six": 2104,
    "claim,</w>": 2105,
    "competent</w>": 2106,
    "ing:</w>": 2107,
    "Bio": 2108,
    "NE": 2109,
    "MA": 2110,
    "[...***...": 2111,
    "create</w>": 2112,
    "Feder": 2113,
    "Cis": 2114,
    "seek</w>": 2115,
    "specifications</w>": 2116,
    "ary,</w>": 2117,
    "thereof.</w>": 2118,
    "Medi": 2119,
    "course</w>": 2120,
    "registr": 2121,
    "communications</w>": 2122,
    "last</w>": 2123,
    "Price</w>": 2124,
    "Co-Branded</w>": 2125,
    "2.3</w>": 2126,
    "install": 2127,
    "SECTION</w>": 2128,
    "Quality</w>": 2129,
    "Territory,</w>": 2130,
    "thus</w>": 2131,
    "representations</w>": 2132,
    "san": 2133,
    "cannot</w>": 2134,
    "tu": 2135,
    "long</w>": 2136,
    "KO": 2137,
    "hereof.</w>": 2138,
    "Carrier</w>": 2139,
    "doubt,</w>": 2140,
    "SCH": 2141,
    "Por": 2142,
    "Treatment</w>": 2143,
    "assistance</w>": 2144,
    "known</w>": 2145,
    "accounting</w>": 2146,
    "opportun": 2147,
    "BK": 2148,
    "Zogen": 2149,
    "Do": 2150,
    "ris": 2151,
    "exceed</w>": 2152,
    "defend</w>": 2153,
    "soon</w>": 2154,
    "WY": 2155,
    "RevMed</w>": 2156,
    "monthly</w>": 2157,
    "CONTRAC": 2158,
    "Confiden": 2159,
    "RIGH": 2160,
    "a)</w>": 2161,
    "HS": 2162,
    "WYZZ": 2163,
    "assist</w>": 2164,
    "equity</w>": 2165,
    "occurrence</w>": 2166,
    "Fir": 2167,
    "scription</w>": 2168,
    ".g": 2169,
    "Oblig": 2170,
    "S.": 2171,
    "LLC</w>": 2172,
    "IBM": 2173,
    "(collectively,</w>": 2174,
    "mor": 2175,
    "Tar": 2176,
    "Array</w>": 2177,
    "solven": 2178,
    "Unless</w>": 2179,
    "aggregate</w>": 2180,
    "Minimum</w>": 2181,
    "Arbitr": 2182,
    "IR": 2183,
    "successors</w>": 2184,
    "Venture</w>": 2185,
    "Harpoon</w>": 2186,
    "y)</w>": 2187,
    "\",</w>": 2188,
    "Month": 2189,
    "AbbVie</w>": 2190,
    "Certain</w>": 2191,
    "[*]": 2192,
    "Work": 2193,
    "canthus</w>": 2194,
    "LIABI": 2195,
    "EK": 2196,
    "yon": 2197,
    "ABLE</w>": 2198,
    "Event</w>": 2199,
    "ALS</w>": 2200,
    "by,</w>": 2201,
    "equip": 2202,
    "obtaining</w>": 2203,
    "Hy": 2204,
    "dw": 2205,
    "join": 2206,
    "6,</w>": 2207,
    "PHAR": 2208,
    "TREAT": 2209,
    "resolve</w>": 2210,
    "pending</w>": 2211,
    "23</w>": 2212,
    "sixty</w>": 2213,
    "principal</w>": 2214,
    "exchange</w>": 2215,
    "PP": 2216,
    "Corio</w>": 2217,
    "ipient</w>": 2218,
    "recogn": 2219,
    "MD</w>": 2220,
    "atform</w>": 2221,
    "materials,</w>": 2222,
    "Pow": 2223,
    "TREATMENT</w>": 2224,
    "Year": 2225,
    "Trust</w>": 2226,
    "Facility</w>": 2227,
    "agency</w>": 2228,
    "operations</w>": 2229,
    "DAT": 2230,
    "y;</w>": 2231,
    "VO": 2232,
    "Royalty</w>": 2233,
    "sing": 2234,
    "valu": 2235,
    "that:</w>": 2236,
    "1,": 2237,
    "injunc": 2238,
    "transaction</w>": 2239,
    "G,</w>": 2240,
    "notices</w>": 2241,
    "beyon": 2242,
    "Without</w>": 2243,
    "persons</w>": 2244,
    "know": 2245,
    "ks.</w>": 2246,
    "potential</w>": 2247,
    "President</w>": 2248,
    "ground</w>": 2249,
    "Miscanthus</w>": 2250,
    "Monsan": 2251,
    "notice,</w>": 2252,
    "CHANGE</w>": 2253,
    "meeting</w>": 2254,
    "SUCH</w>": 2255,
    "Global</w>": 2256,
    "currently</w>": 2257,
    "beyond</w>": 2258,
    "affected</w>": 2259,
    "SECUR": 2260,
    "subsidiar": 2261,
    "Marke": 2262,
    "aunch</w>": 2263,
    "Metavante</w>": 2264,
    "agents,</w>": 2265,
    "Tax": 2266,
    "inventory</w>": 2267,
    "Distribution</w>": 2268,
    "accepted</w>": 2269,
    "(whether</w>": 2270,
    "l,</w>": 2271,
    "31</w>": 2272,
    "MITTED</w>": 2273,
    "CLAI": 2274,
    "ief</w>": 2275,
    "hereinafter</w>": 2276,
    "Fees</w>": 2277,
    "End</w>": 2278,
    "GSK</w>": 2279,
    "pdf</w>": 2280,
    "ize</w>": 2281,
    "carry</w>": 2282,
    "WIT": 2283,
    "aging</w>": 2284,
    "60": 2285,
    "voting</w>": 2286,
    "FMI</w>": 2287,
    "4.2</w>": 2288,
    "E.</w>": 2289,
    "gross</w>": 2290,
    "PROPER": 2291,
    "Fur": 2292,
    "respects</w>": 2293,
    "unable</w>": 2294,
    "Channel</w>": 2295,
    "Information": 2296,
    "GI": 2297,
    "modified</w>": 2298,
    "technology</w>": 2299,
    "(g)</w>": 2300,
    "bound</w>": 2301,
    "termination,</w>": 2302,
    "lation</w>": 2303,
    "EFS</w>": 2304,
    "tions.</w>": 2305,
    "items</w>": 2306,
    "indemnification</w>": 2307,
    "following:</w>": 2308,
    "reimburse</w>": 2309,
    "resolution</w>": 2310,
    "attorneys'</w>": 2311,
    "Distributor's</w>": 2312,
    "participate</w>": 2313,
    "JR": 2314,
    "AL,</w>": 2315,
    "9/": 2316,
    "compensation</w>": 2317,
    "b)</w>": 2318,
    "Dov": 2319,
    "###</w>": 2320,
    "satisf": 2321,
    "f,</w>": 2322,
    "================================================": 2323,
    "Material": 2324,
    "DAMAG": 2325,
    "Ander": 2326,
    "26</w>": 2327,
    "true</w>": 2328,
    "Theravance</w>": 2329,
    "Majeure</w>": 2330,
    "Clause</w>": 2331,
    "DOCUMENT:</w>": 2332,
    "safety</w>": 2333,
    "TERMIN": 2334,
    "(9": 2335,
    "Consultant</w>": 2336,
    ".com": 2337,
    "decision</w>": 2338,
    "holding</w>": 2339,
    "supplier": 2340,
    "accr": 2341,
    "==================================================": 2342,
    "==================================================</w>": 2343,
    "priv": 2344,
    "(which</w>": 2345,
    "ici": 2346,
    "thereafter</w>": 2347,
    "ify,</w>": 2348,
    "tion:</w>": 2349,
    "bination</w>": 2350,
    "-1/A,</w>": 2351,
    "Permitted</w>": 2352,
    "facilities</w>": 2353,
    "iscal</w>": 2354,
    "FRANCH": 2355,
    "Commen": 2356,
    "4/": 2357,
    "contrary</w>": 2358,
    "Inden": 2359,
    "Moelis</w>": 2360,
    "TEL": 2361,
    "3.3</w>": 2362,
    "read": 2363,
    "earlier</w>": 2364,
    "ISSI": 2365,
    "normal</w>": 2366,
    "(e.g": 2367,
    "Y.</w>": 2368,
    "Contractor": 2369,
    "Back": 2370,
    "employment</w>": 2371,
    "ann": 2372,
    "Conver": 2373,
    "promotion</w>": 2374,
    "acceptance</w>": 2375,
    "government</w>": 2376,
    "obligated</w>": 2377,
    "LA": 2378,
    "Term.</w>": 2379,
    "[**]</w>": 2380,
    "maximum</w>": 2381,
    "indemnifying</w>": 2382,
    "MB": 2383,
    "BLI</w>": 2384,
    "u</w>": 2385,
    "TUAL</w>": 2386,
    "Pack": 2387,
    "Suite</w>": 2388,
    "threatened</w>": 2389,
    "bu": 2390,
    "Transferred</w>": 2391,
    "Vale": 2392,
    "TELKO": 2393,
    "discretion</w>": 2394,
    "cease</w>": 2395,
    "Be": 2396,
    "Buyer</w>": 2397,
    "data,</w>": 2398,
    "hereto,</w>": 2399,
    "enforceable</w>": 2400,
    "Aim": 2401,
    "SECURITIES</w>": 2402,
    "completion</w>": 2403,
    "5.2</w>": 2404,
    "Subcontractor</w>": 2405,
    ".pdf</w>": 2406,
    "capital</w>": 2407,
    "systems</w>": 2408,
    "CP": 2409,
    "Gen": 2410,
    "uary</w>": 2411,
    ".\"</w>": 2412,
    "injur": 2413,
    "holders</w>": 2414,
    "ring</w>": 2415,
    "Even": 2416,
    "7/": 2417,
    "jointly</w>": 2418,
    "WARRANTIES</w>": 2419,
    "=</w>": 2420,
    "appointed</w>": 2421,
    "OMITTED</w>": 2422,
    "EXCHANGE</w>": 2423,
    "-2</w>": 2424,
    "I,</w>": 2425,
    "Entities</w>": 2426,
    "mul": 2427,
    "Excite": 2428,
    "t:</w>": 2429,
    "whom</w>": 2430,
    "NICE</w>": 2431,
    "excess</w>": 2432,
    "thereafter": 2433,
    "furnished</w>": 2434,
    "modify</w>": 2435,
    "Financial</w>": 2436,
    "5,</w>": 2437,
    "twen": 2438,
    "Advertising</w>": 2439,
    "ds.</w>": 2440,
    "December</w>": 2441,
    "Accur": 2442,
    "Cy": 2443,
    "single</w>": 2444,
    "($": 2445,
    "Equifax</w>": 2446,
    "wee": 2447,
    "trademark</w>": 2448,
    "DEMN": 2449,
    "communication</w>": 2450,
    "Mb</w>": 2451,
    "Account</w>": 2452,
    "ound</w>": 2453,
    "York</w>": 2454,
    "Execution</w>": 2455,
    "([***])</w>": 2456,
    "Wa": 2457,
    "INDEMN": 2458,
    "through": 2459,
    "ue": 2460,
    "MG</w>": 2461,
    "Sanofi</w>": 2462,
    "cho": 2463,
    "business,</w>": 2464,
    "administrative</w>": 2465,
    "withhel": 2466,
    "exten": 2467,
    "By</w>": 2468,
    "four</w>": 2469,
    "INTELLECTUAL</w>": 2470,
    "Days</w>": 2471,
    "Commun": 2472,
    "Defaul": 2473,
    "Ginkgo</w>": 2474,
    "possible</w>": 2475,
    "JSC</w>": 2476,
    "AZ": 2477,
    "defen": 2478,
    "Yor": 2479,
    "clarity,</w>": 2480,
    "az": 2481,
    "Mus": 2482,
    "insolven": 2483,
    "28": 2484,
    "trademarks,</w>": 2485,
    "Chief</w>": 2486,
    "Appen": 2487,
    "26": 2488,
    "AIRSO": 2489,
    "certified</w>": 2490,
    "Law.</w>": 2491,
    "adjust": 2492,
    "Within</w>": 2493,
    "Jans": 2494,
    "entr": 2495,
    "Date:</w>": 2496,
    "scope</w>": 2497,
    "[*</w>": 2498,
    "Internet</w>": 2499,
    "Accep": 2500,
    "MACEUTIC": 2501,
    "Officer</w>": 2502,
    "users</w>": 2503,
    "PHARMACEUTIC": 2504,
    "Green</w>": 2505,
    "creditor": 2506,
    "terms,</w>": 2507,
    "representation</w>": 2508,
    "-------</w>": 2509,
    "excluding</w>": 2510,
    "SCHEDULE</w>": 2511,
    "ii": 2512,
    "iP": 2513,
    "makes</w>": 2514,
    "understo": 2515,
    "CC</w>": 2516,
    "Pe": 2517,
    "Inc.,</w>": 2518,
    "GE": 2519,
    "ings,</w>": 2520,
    "Act,</w>": 2521,
    "1-": 2522,
    "then-": 2523,
    "[...***...]</w>": 2524,
    "Exhib": 2525,
    "Federal</w>": 2526,
    "supplied</w>": 2527,
    "modification</w>": 2528,
    "foreign</w>": 2529,
    "Ho": 2530,
    "DC</w>": 2531,
    "Zogenix</w>": 2532,
    "tains</w>": 2533,
    "OF,</w>": 2534,
    "products,</w>": 2535,
    "izon": 2536,
    "Principal</w>": 2537,
    "Center</w>": 2538,
    "h)</w>": 2539,
    "Xen": 2540,
    "Lt": 2541,
    "enable</w>": 2542,
    "option</w>": 2543,
    "brought</w>": 2544,
    "JOH": 2545,
    "6.2</w>": 2546,
    "understood</w>": 2547,
    "source</w>": 2548,
    "HERE": 2549,
    "Airs": 2550,
    "ills</w>": 2551,
    "display</w>": 2552,
    "replacement</w>": 2553,
    "taking</w>": 2554,
    "SHALL</w>": 2555,
    "t(s)</w>": 2556,
    "next</w>": 2557,
    "law.</w>": 2558,
    "investment</w>": 2559,
    "restrictions</w>": 2560,
    "Quarter": 2561,
    "Subscription</w>": 2562,
    "Agent,</w>": 2563,
    "Sonos</w>": 2564,
    "liabilities</w>": 2565,
    "TO": 2566,
    "ators</w>": 2567,
    "longer</w>": 2568,
    "lease</w>": 2569,
    "web": 2570,
    "itself</w>": 2571,
    "funds</w>": 2572,
    "automatically</w>": 2573,
    "name,</w>": 2574,
    "ability.</w>": 2575,
    "ell": 2576,
    "holder": 2577,
    "Microgen": 2578,
    "furnish</w>": 2579,
    "WITNESS</w>": 2580,
    "judgment</w>": 2581,
    "Operating</w>": 2582,
    "March</w>": 2583,
    "Far": 2584,
    "withdr": 2585,
    "completed</w>": 2586,
    "Dispute</w>": 2587,
    "Paragraph</w>": 2588,
    "created</w>": 2589,
    "in,</w>": 2590,
    "2.4</w>": 2591,
    "OB": 2592,
    "NOT</w>": 2593,
    "negotiate</w>": 2594,
    "TEN": 2595,
    "ascribed</w>": 2596,
    "Cisco</w>": 2597,
    "below.</w>": 2598,
    "regulations,</w>": 2599,
    "suit</w>": 2600,
    "EKR</w>": 2601,
    "names</w>": 2602,
    "sion,</w>": 2603,
    "y\"</w>": 2604,
    "Certeg": 2605,
    "TECH": 2606,
    "equivalent</w>": 2607,
    "IFIC": 2608,
    "Drug</w>": 2609,
    "Insurance</w>": 2610,
    "SOFT": 2611,
    "1/2": 2612,
    "Repairer</w>": 2613,
    "conven": 2614,
    "s),</w>": 2615,
    "internal</w>": 2616,
    "dless</w>": 2617,
    "GRO": 2618,
    "Platform</w>": 2619,
    "Base</w>": 2620,
    "SIGA</w>": 2621,
    "lan": 2622,
    "breaching</w>": 2623,
    "twel": 2624,
    "FD": 2625,
    "IAC</w>": 2626,
    "worldw": 2627,
    "Am": 2628,
    "Counter": 2629,
    "facsimile</w>": 2630,
    "programs</w>": 2631,
    "INCLU": 2632,
    "):</w>": 2633,
    "PT</w>": 2634,
    "phys": 2635,
    "Indemnification</w>": 2636,
    "prej": 2637,
    "benefits</w>": 2638,
    "MacroGen": 2639,
    "sale,</w>": 2640,
    "individu": 2641,
    "\");</w>": 2642,
    "Commencement</w>": 2643,
    "detailed</w>": 2644,
    "PROPERTY</w>": 2645,
    "-F": 2646,
    "co-": 2647,
    "Source</w>": 2648,
    "kisu": 2649,
    "Oc": 2650,
    "ments.</w>": 2651,
    "Att": 2652,
    "Attn": 2653,
    "SUB": 2654,
    "-3": 2655,
    "SPEC": 2656,
    "research</w>": 2657,
    "meetings</w>": 2658,
    "Administr": 2659,
    "Sekisu": 2660,
    "THAT</w>": 2661,
    "Valeant</w>": 2662,
    "SutroV": 2663,
    "Liquid": 2664,
    "determination</w>": 2665,
    "Sol": 2666,
    "Arizon": 2667,
    "Outsour": 2668,
    "Wireless</w>": 2669,
    "TELKOM</w>": 2670,
    "maintained</w>": 2671,
    "environ": 2672,
    "Liability</w>": 2673,
    "Representations</w>": 2674,
    "TPH": 2675,
    "validly</w>": 2676,
    "we": 2677,
    "commence</w>": 2678,
    "Anderson</w>": 2679,
    "33</w>": 2680,
    "First</w>": 2681,
    "MHC</w>": 2682,
    "Member": 2683,
    "Outsourcing</w>": 2684,
    "Cyto": 2685,
    "CytoD": 2686,
    "Group,</w>": 2687,
    "BKC</w>": 2688,
    "royalty</w>": 2689,
    "Endor": 2690,
    "Representatives</w>": 2691,
    "affiliates</w>": 2692,
    "below)</w>": 2693,
    "W,</w>": 2694,
    "modifications</w>": 2695,
    "correc": 2696,
    "undred</w>": 2697,
    "Purchaser</w>": 2698,
    "Attn:</w>": 2699,
    "Conten": 2700,
    "attempt</w>": 2701,
    "Append": 2702,
    "ub": 2703,
    "Background</w>": 2704,
    "MF": 2705,
    "32</w>": 2706,
    "Trademark</w>": 2707,
    "Aimmune</w>": 2708,
    "Capital</w>": 2709,
    "opportunity</w>": 2710,
    "al.</w>": 2711,
    "resolved</w>": 2712,
    "International</w>": 2713,
    "components</w>": 2714,
    "29</w>": 2715,
    "E,</w>": 2716,
    "Attention:</w>": 2717,
    "pricing</w>": 2718,
    "REPRESEN": 2719,
    "number": 2720,
    "(4)</w>": 2721,
    "All": 2722,
    "Dova</w>": 2723,
    "commit": 2724,
    "back": 2725,
    "38</w>": 2726,
    "Technologies</w>": 2727,
    "S-1,</w>": 2728,
    "Excite@": 2729,
    "39</w>": 2730,
    "adequate</w>": 2731,
    "altern": 2732,
    "directors</w>": 2733,
    "U.S.": 2734,
    "c.</w>": 2735,
    "you": 2736,
    "order,</w>": 2737,
    "schedule</w>": 2738,
    "type</w>": 2739,
    "quantity</w>": 2740,
    "Po": 2741,
    "XENCOR</w>": 2742,
    "every</w>": 2743,
    "expected</w>": 2744,
    "objec": 2745,
    "integr": 2746,
    "ATE</w>": 2747,
    "Blue</w>": 2748,
    "equipment,</w>": 2749,
    "Califor": 2750,
    "Californ": 2751,
    "hereto.</w>": 2752,
    "violate</w>": 2753,
    "Common</w>": 2754,
    ":00</w>": 2755,
    "Trustee</w>": 2756,
    "PETRO": 2757,
    "Exx": 2758,
    "accurate</w>": 2759,
    "tment</w>": 2760,
    "ict</w>": 2761,
    "Research</w>": 2762,
    "regardless</w>": 2763,
    "words</w>": 2764,
    "Monsanto</w>": 2765,
    "oral</w>": 2766,
    "enforcement</w>": 2767,
    "sy": 2768,
    "Restric": 2769,
    "unauthorized</w>": 2770,
    "throughout</w>": 2771,
    "pertaining</w>": 2772,
    "which": 2773,
    "supplement</w>": 2774,
    "Boo": 2775,
    "Countr": 2776,
    "NT": 2777,
    "R.</w>": 2778,
    "senten": 2779,
    "(a)": 2780,
    "discuss</w>": 2781,
    "instrument</w>": 2782,
    "negligence</w>": 2783,
    "35</w>": 2784,
    "Form</w>": 2785,
    "I.</w>": 2786,
    "ECOPETRO": 2787,
    "begin": 2788,
    "WHEREOF,</w>": 2789,
    "Neoforma</w>": 2790,
    "INFORMATION</w>": 2791,
    "desires</w>": 2792,
    "shor": 2793,
    "independen": 2794,
    "www": 2795,
    "equitable</w>": 2796,
    "ceability</w>": 2797,
    "COMMISSI": 2798,
    "prices</w>": 2799,
    "strateg": 2800,
    "Appendix</w>": 2801,
    "Trial</w>": 2802,
    "Workf": 2803,
    "Allscrip": 2804,
    "SERVICES</w>": 2805,
    "tang": 2806,
    "venue</w>": 2807,
    "promote</w>": 2808,
    "defec": 2809,
    "LIMIT": 2810,
    "events</w>": 2811,
    "inspection</w>": 2812,
    "MARK": 2813,
    "then-current</w>": 2814,
    "BR": 2815,
    "Wil": 2816,
    "Ehave</w>": 2817,
    "PPI</w>": 2818,
    "Compliance</w>": 2819,
    "36</w>": 2820,
    "twelve</w>": 2821,
    "LLC,</w>": 2822,
    "tails</w>": 2823,
    "accur": 2824,
    "PA": 2825,
    "generated</w>": 2826,
    "Amoun": 2827,
    "CA</w>": 2828,
    "MT": 2829,
    "shipping</w>": 2830,
    "Exxon": 2831,
    "ExxonMob": 2832,
    "Liquidme": 2833,
    "requires</w>": 2834,
    "(6)</w>": 2835,
    "LIABILITY</w>": 2836,
    "fix": 2837,
    "Time": 2838,
    "HER": 2839,
    "S/": 2840,
    "Receivables</w>": 2841,
    "Recipient</w>": 2842,
    "FILED</w>": 2843,
    "Arbitration</w>": 2844,
    "ysis</w>": 2845,
    "Director": 2846,
    "CR": 2847,
    "organization</w>": 2848,
    "PART": 2849,
    "d)</w>": 2850,
    "Can": 2851,
    "Goog": 2852,
    "M&I</w>": 2853,
    "of-": 2854,
    "nine": 2855,
    "LY</w>": 2856,
    "RemainCo</w>": 2857,
    "engage</w>": 2858,
    "names,</w>": 2859,
    "3.4</w>": 2860,
    "EXCE": 2861,
    "Sign": 2862,
    "NCM</w>": 2863,
    "Certegy</w>": 2864,
    "flo": 2865,
    "www.": 2866,
    "Benef": 2867,
    "qualified</w>": 2868,
    "Up": 2869,
    "imposed</w>": 2870,
    "Te": 2871,
    "prohib": 2872,
    "Cross</w>": 2873,
    "Agreement\")</w>": 2874,
    "Day</w>": 2875,
    "responsibilities</w>": 2876,
    "TERMINATION</w>": 2877,
    "consultan": 2878,
    "Health": 2879,
    "different</w>": 2880,
    "6/": 2881,
    "exhibit</w>": 2882,
    "Standar": 2883,
    "supplemen": 2884,
    "York,</w>": 2885,
    "once</w>": 2886,
    "1934,</w>": 2887,
    "person,</w>": 2888,
    "Rights.</w>": 2889,
    "q</w>": 2890,
    "Vyer": 2891,
    "Either</w>": 2892,
    "franchise</w>": 2893,
    "Val": 2894,
    "9,</w>": 2895,
    "(vi)</w>": 2896,
    "No.</w>": 2897,
    "Law,</w>": 2898,
    "8.2</w>": 2899,
    "cies</w>": 2900,
    "NOLO": 2901,
    "April</w>": 2902,
    "Indenture</w>": 2903,
    "Crude</w>": 2904,
    "partnership,</w>": 2905,
    "mo": 2906,
    "nation": 2907,
    "books</w>": 2908,
    "Specifications</w>": 2909,
    "greater</w>": 2910,
    "ach,</w>": 2911,
    "8,</w>": 2912,
    "(e.g.,</w>": 2913,
    "sub-": 2914,
    "Infr": 2915,
    "et": 2916,
    "Center": 2917,
    "_EX": 2918,
    "Bioe": 2919,
    "consent,</w>": 2920,
    "purchased</w>": 2921,
    "ak": 2922,
    "calculated</w>": 2923,
    "work": 2924,
    "second</w>": 2925,
    "amendments</w>": 2926,
    "inspec": 2927,
    "DS</w>": 2928,
    "CORP,</w>": 2929,
    "basis,</w>": 2930,
    "acquisition</w>": 2931,
    "issuance</w>": 2932,
    "involving</w>": 2933,
    "evidence</w>": 2934,
    "Prior</w>": 2935,
    "35": 2936,
    "existen": 2937,
    "Canad": 2938,
    "1.4": 2939,
    "Impres": 2940,
    "iPass</w>": 2941,
    "Achaogen</w>": 2942,
    "Terms</w>": 2943,
    "losses,</w>": 2944,
    "langu": 2945,
    "redacted</w>": 2946,
    "Worl": 2947,
    "FE": 2948,
    "Plan,</w>": 2949,
    "ivative</w>": 2950,
    "AE": 2951,
    "Qualigen</w>": 2952,
    "MediW": 2953,
    "Promotion</w>": 2954,
    "quarterly</w>": 2955,
    "Dollars</w>": 2956,
    "Fail": 2957,
    "36": 2958,
    "GR": 2959,
    "_0": 2960,
    "\".</w>": 2961,
    "Promotional</w>": 2962,
    "Effor": 2963,
    "C)</w>": 2964,
    "sponsor": 2965,
    "Option</w>": 2966,
    "event,</w>": 2967,
    "Holding</w>": 2968,
    "Microsof": 2969,
    "corresponding</w>": 2970,
    "assess": 2971,
    "s\")</w>": 2972,
    "certificate</w>": 2973,
    "Item</w>": 2974,
    "Muscle": 2975,
    "properly</w>": 2976,
    "practice</w>": 2977,
    "prin": 2978,
    "corporation,</w>": 2979,
    "Paper": 2980,
    "development,</w>": 2981,
    "quantities</w>": 2982,
    "Br": 2983,
    "(b)": 2984,
    "acquire</w>": 2985,
    "which,</w>": 2986,
    "Security</w>": 2987,
    "Arizona</w>": 2988,
    "Launch</w>": 2989,
    "31,</w>": 2990,
    "TECHNOLO": 2991,
    "risk</w>": 2992,
    "trademarks</w>": 2993,
    "OBLIG": 2994,
    "III</w>": 2995,
    "(h)</w>": 2996,
    "Holdings</w>": 2997,
    "legally</w>": 2998,
    "B,</w>": 2999,
    "notwithstanding</w>": 3000,
    "Warranty</w>": 3001,
    "goodwill</w>": 3002,
    "effect.</w>": 3003,
    "ordinary</w>": 3004,
    "SERVICER": 3005,
    "Microgenics</w>": 3006,
    "plus</w>": 3007,
    "ience</w>": 3008,
    "struc": 3009,
    "Customers</w>": 3010,
    "ready</w>": 3011,
    "federal,</w>": 3012,
    "m.</w>": 3013,
    "Performance</w>": 3014,
    "Fox</w>": 3015,
    "Janssen</w>": 3016,
    "MacroGenics</w>": 3017,
    "whose</w>": 3018,
    "tangible</w>": 3019,
    "third-": 3020,
    "irs</w>": 3021,
    "Num": 3022,
    "arbitrator</w>": 3023,
    "exhib": 3024,
    "accounts</w>": 3025,
    "UP": 3026,
    "99</w>": 3027,
    "Farids</w>": 3028,
    "2,": 3029,
    "Adap": 3030,
    "80": 3031,
    "Technical</w>": 3032,
    "ia,</w>": 3033,
    "below,</w>": 3034,
    "Regulations</w>": 3035,
    "implementation</w>": 3036,
    "5.3</w>": 3037,
    "forms</w>": 3038,
    "Lo": 3039,
    "c)</w>": 3040,
    "SAP</w>": 3041,
    "willful</w>": 3042,
    "identify</w>": 3043,
    "officers</w>": 3044,
    "Payments</w>": 3045,
    "returned</w>": 3046,
    "adversely</w>": 3047,
    "SC": 3048,
    "fifteen</w>": 3049,
    "affecting</w>": 3050,
    "24b": 3051,
    "transferred</w>": 3052,
    "practicable</w>": 3053,
    "Xencor</w>": 3054,
    "Entire</w>": 3055,
    "scheduled</w>": 3056,
    "bankruptcy</w>": 3057,
    "aboratory</w>": 3058,
    "subsidiaries</w>": 3059,
    "------</w>": 3060,
    "1.5": 3061,
    "gy</w>": 3062,
    "LT": 3063,
    "excep": 3064,
    "addressed</w>": 3065,
    "IMPLI": 3066,
    "facility</w>": 3067,
    "Adverse</w>": 3068,
    "SMB": 3069,
    "LMG</w>": 3070,
    "know-": 3071,
    "opinion</w>": 3072,
    "4.3</w>": 3073,
    "professional</w>": 3074,
    "Software,</w>": 3075,
    "Agent's</w>": 3076,
    "Wr": 3077,
    "liquid": 3078,
    "Alliance</w>": 3079,
    "remove</w>": 3080,
    "health</w>": 3081,
    "impa": 3082,
    "indemnified</w>": 3083,
    "designate</w>": 3084,
    "WI": 3085,
    "option,</w>": 3086,
    "90": 3087,
    "2.5</w>": 3088,
    "suit,</w>": 3089,
    "(x)</w>": 3090,
    "b.</w>": 3091,
    "DO": 3092,
    "CytoDyn</w>": 3093,
    "S-1/A,</w>": 3094,
    "E.": 3095,
    "collectively</w>": 3096,
    "2000</w>": 3097,
    "H</w>": 3098,
    "Hills</w>": 3099,
    "6.3</w>": 3100,
    "beginning</w>": 3101,
    "marks</w>": 3102,
    "of:</w>": 3103,
    "Subsidiar": 3104,
    "veh": 3105,
    "ExxonMobil</w>": 3106,
    "SEPAR": 3107,
    "borne</w>": 3108,
    "ns</w>": 3109,
    "litigation</w>": 3110,
    "SOFTWARE</w>": 3111,
    "Warranties</w>": 3112,
    "inure</w>": 3113,
    "Manu": 3114,
    "Google</w>": 3115,
    "1.2</w>": 3116,
    "independently</w>": 3117,
    "penal": 3118,
    "knowledge,</w>": 3119,
    "exc": 3120,
    "Adaptim": 3121,
    "transmission</w>": 3122,
    "87": 3123,
    "encum": 3124,
    "steps</w>": 3125,
    "June</w>": 3126,
    "reflect</w>": 3127,
    "commencing</w>": 3128,
    "jor</w>": 3129,
    "Sam": 3130,
    "commercializ": 3131,
    "coverage</w>": 3132,
    "MSL": 3133,
    "indemnify,</w>": 3134,
    "Accuray</w>": 3135,
    "special</w>": 3136,
    "OPER": 3137,
    "CAR": 3138,
    "Authorities</w>": 3139,
    "Pf": 3140,
    "third-party</w>": 3141,
    "engaged</w>": 3142,
    "misconduct</w>": 3143,
    "Rules</w>": 3144,
    "continuing</w>": 3145,
    "form,</w>": 3146,
    "unit</w>": 3147,
    "representations,</w>": 3148,
    "Bankruptcy</w>": 3149,
    "Credit</w>": 3150,
    "Pfiz": 3151,
    "WYZZ</w>": 3152,
    "incur</w>": 3153,
    "North</w>": 3154,
    "als,</w>": 3155,
    "untrue</w>": 3156,
    "Changepoint</w>": 3157,
    "Au": 3158,
    "taxes,</w>": 3159,
    "95": 3160,
    "causes</w>": 3161,
    "disputes</w>": 3162,
    "references</w>": 3163,
    "MTA</w>": 3164,
    "MER": 3165,
    "hundred</w>": 3166,
    "Plan.</w>": 3167,
    "tifies</w>": 3168,
    "bank</w>": 3169,
    "(i.": 3170,
    "mark</w>": 3171,
    "prejudice</w>": 3172,
    "PC</w>": 3173,
    "Restaurant</w>": 3174,
    "JOHN": 3175,
    "Ink": 3176,
    "Inktom": 3177,
    "Party\")</w>": 3178,
    "draf": 3179,
    "packaging</w>": 3180,
    "repair</w>": 3181,
    "function": 3182,
    "Adv": 3183,
    "Af": 3184,
    "After</w>": 3185,
    "Franchisee": 3186,
    "Franchisor</w>": 3187,
    "-EX": 3188,
    "seeking</w>": 3189,
    "exam": 3190,
    "kind</w>": 3191,
    "SEPARATELY</w>": 3192,
    "World</w>": 3193,
    "ian</w>": 3194,
    "Mobile</w>": 3195,
    "7.2</w>": 3196,
    "When</w>": 3197,
    "acquired</w>": 3198,
    "Gran": 3199,
    "overnight</w>": 3200,
    "selected</w>": 3201,
    "royalty-": 3202,
    "investigation</w>": 3203,
    "January</w>": 3204,
    "34</w>": 3205,
    "E-": 3206,
    "Users</w>": 3207,
    "Eutec": 3208,
    "Sekisui</w>": 3209,
    "transfer,</w>": 3210,
    "ARISING</w>": 3211,
    "injury</w>": 3212,
    "transportation</w>": 3213,
    "in-": 3214,
    "aw</w>": 3215,
    "tg": 3216,
    "primary</w>": 3217,
    "Septem": 3218,
    "24b-2</w>": 3219,
    "INDEMNIFIC": 3220,
    "FT": 3221,
    "Reason": 3222,
    "liabilities,</w>": 3223,
    "dependent</w>": 3224,
    "instructions</w>": 3225,
    "VI": 3226,
    "Airspan</w>": 3227,
    "Flo": 3228,
    "Colum": 3229,
    "Capacity</w>": 3230,
    "(7": 3231,
    "Anal": 3232,
    "].</w>": 3233,
    "Vyera</w>": 3234,
    "ch,</w>": 3235,
    "American</w>": 3236,
    "AIRSOPURE</w>": 3237,
    "obligation,</w>": 3238,
    "iversary</w>": 3239,
    "Indemnitee</w>": 3240,
    "Nexstar</w>": 3241,
    "Allscripts</w>": 3242,
    "labor</w>": 3243,
    "7,</w>": 3244,
    "$</w>": 3245,
    "projec": 3246,
    "9.2</w>": 3247,
    "AX": 3248,
    "ood</w>": 3249,
    "LICENSE": 3250,
    "WG": 3251,
    "Respons": 3252,
    "recognized</w>": 3253,
    "Amendment</w>": 3254,
    "iable</w>": 3255,
    "],</w>": 3256,
    "Client's</w>": 3257,
    "BIO</w>": 3258,
    "MATERIAL</w>": 3259,
    "3.5</w>": 3260,
    "Sub-": 3261,
    "consents</w>": 3262,
    "field</w>": 3263,
    "duration</w>": 3264,
    "ds": 3265,
    "T's</w>": 3266,
    "Subcontractor": 3267,
    "XXXX": 3268,
    "ECOPETROL</w>": 3269,
    "UB": 3270,
    "occur</w>": 3271,
    "missions</w>": 3272,
    "INCLUDING</w>": 3273,
    "atural</w>": 3274,
    "ACT</w>": 3275,
    "Property.</w>": 3276,
    "PAY": 3277,
    "methods</w>": 3278,
    "contractual</w>": 3279,
    "TIONS</w>": 3280,
    "whatsoever</w>": 3281,
    "Government</w>": 3282,
    "ium</w>": 3283,
    "Addendum</w>": 3284,
    "Acceptance</w>": 3285,
    "GY</w>": 3286,
    "diligen": 3287,
    "copyright</w>": 3288,
    "affiliates,</w>": 3289,
    "Laws.</w>": 3290,
    "Er": 3291,
    "September</w>": 3292,
    "CD": 3293,
    "Columb": 3294,
    "requirement</w>": 3295,
    "promulg": 3296,
    "Further": 3297,
    "body</w>": 3298,
    "Trade</w>": 3299,
    "notification</w>": 3300,
    "existence</w>": 3301,
    "otherwise": 3302,
    "anniversary</w>": 3303,
    "appointment</w>": 3304,
    "(each,</w>": 3305,
    "counterparts,</w>": 3306,
    "bar": 3307,
    "principles</w>": 3308,
    "air": 3309,
    "70": 3310,
    "JECT</w>": 3311,
    "MHC": 3312,
    "decisions</w>": 3313,
    "Manufacturer's</w>": 3314,
    "Reasonable</w>": 3315,
    "sample</w>": 3316,
    "MediWound</w>": 3317,
    "contract,</w>": 3318,
    "balance</w>": 3319,
    "to-": 3320,
    "permits</w>": 3321,
    "(hereinafter</w>": 3322,
    "ms</w>": 3323,
    "11": 3324,
    "igital</w>": 3325,
    "Agency</w>": 3326,
    "Effec": 3327,
    "Registr": 3328,
    "HealthG": 3329,
    "m,</w>": 3330,
    "elects</w>": 3331,
    "jurisdiction,</w>": 3332,
    "Vice</w>": 3333,
    "area</w>": 3334,
    "REQUESTED</w>": 3335,
    "rules,</w>": 3336,
    "A's</w>": 3337,
    "VAL": 3338,
    "PaperExchange</w>": 3339,
    "notice.</w>": 3340,
    "like</w>": 3341,
    "SHIP</w>": 3342,
    "authorization</w>": 3343,
    "liability,</w>": 3344,
    "Association</w>": 3345,
    "commencement</w>": 3346,
    "75</w>": 3347,
    "Monthly</w>": 3348,
    "Agents</w>": 3349,
    "ibility</w>": 3350,
    "thereafter,</w>": 3351,
    "ROM</w>": 3352,
    "Ownership</w>": 3353,
    "cien": 3354,
    "Licensee's</w>": 3355,
    "School": 3356,
    "ti-": 3357,
    "maintaining</w>": 3358,
    "TERM</w>": 3359,
    "physical</w>": 3360,
    "guidelines</w>": 3361,
    "2-": 3362,
    "Documentation</w>": 3363,
    "search</w>": 3364,
    "Free</w>": 3365,
    "marks,</w>": 3366,
    "Mc": 3367,
    "placed</w>": 3368,
    "M.</w>": 3369,
    "DR": 3370,
    "stock": 3371,
    "Shipper": 3372,
    "SEV</w>": 3373,
    "sk": 3374,
    "EXCEPT</w>": 3375,
    "Liab": 3376,
    "others</w>": 3377,
    "NF": 3378,
    "Failure</w>": 3379,
    "industry</w>": 3380,
    "Required</w>": 3381,
    "iority</w>": 3382,
    "ACSI</w>": 3383,
    "Information\"</w>": 3384,
    "_</w>": 3385,
    "Should</w>": 3386,
    "combination</w>": 3387,
    "Copy": 3388,
    "Portions</w>": 3389,
    "quir": 3390,
    "ateral</w>": 3391,
    "Bank,</w>": 3392,
    "HOL": 3393,
    "FRANCHISE</w>": 3394,
    "Microsoft</w>": 3395,
    "Excite@Home</w>": 3396,
    "pocket</w>": 3397,
    "DISTRIB": 3398,
    "Customer.</w>": 3399,
    "Europe": 3400,
    "prompt</w>": 3401,
    "rates</w>": 3402,
    "Environ": 3403,
    "companies</w>": 3404,
    "volume</w>": 3405,
    "conducting</w>": 3406,
    "37</w>": 3407,
    "45</w>": 3408,
    "firm</w>": 3409,
    "Commercially</w>": 3410,
    "irrevocably</w>": 3411,
    "fl": 3412,
    "dollars</w>": 3413,
    "Mark": 3414,
    "NETGE": 3415,
    "\"Effective</w>": 3416,
    "promulgated</w>": 3417,
    "C.": 3418,
    "notified</w>": 3419,
    "paragraph": 3420,
    "minim": 3421,
    "systems,</w>": 3422,
    "thereof": 3423,
    "Expenses</w>": 3424,
    "Perform</w>": 3425,
    "Business,</w>": 3426,
    "Women": 3427,
    "Bioeq</w>": 3428,
    "PHARMACEUTICALS</w>": 3429,
    "FROM</w>": 3430,
    "IM": 3431,
    "upgr": 3432,
    "travel</w>": 3433,
    "contracts</w>": 3434,
    "P.</w>": 3435,
    "MusclePharm</w>": 3436,
    "bankrupt": 3437,
    "word</w>": 3438,
    "Ind": 3439,
    "European</w>": 3440,
    "storage</w>": 3441,
    "Package</w>": 3442,
    "30/": 3443,
    "i.</w>": 3444,
    "convenience</w>": 3445,
    "losses</w>": 3446,
    "substantial</w>": 3447,
    "Confidentiality</w>": 3448,
    "OBLIGATIONS</w>": 3449,
    "PRODUCTS</w>": 3450,
    "endor": 3451,
    "head</w>": 3452,
    "preparation</w>": 3453,
    "controls</w>": 3454,
    "Chin": 3455,
    "Antares</w>": 3456,
    "hardware</w>": 3457,
    "TECHNOLOGI": 3458,
    "obligations,</w>": 3459,
    "(C)</w>": 3460,
    "organization,</w>": 3461,
    "Gros": 3462,
    "f.</w>": 3463,
    "Efforts</w>": 3464,
    "Divers": 3465,
    "negotiations</w>": 3466,
    "44</w>": 3467,
    "ption</w>": 3468,
    "record</w>": 3469,
    "aphic</w>": 3470,
    "already</w>": 3471,
    "certificates</w>": 3472,
    "files</w>": 3473,
    "a.": 3474,
    "WE": 3475,
    "ATION.</w>": 3476,
    "Training</w>": 3477,
    "CERT": 3478,
    "Units</w>": 3479,
    "SutroVax</w>": 3480,
    "NOW,</w>": 3481,
    "cooperation</w>": 3482,
    "settle</w>": 3483,
    "G.</w>": 3484,
    "ment": 3485,
    "Acquisition</w>": 3486,
    "Carrier": 3487,
    "extended</w>": 3488,
    "availability</w>": 3489,
    "California</w>": 3490,
    "PURPO": 3491,
    "volun": 3492,
    "likely</w>": 3493,
    "Compensation</w>": 3494,
    "Assay</w>": 3495,
    "Exact</w>": 3496,
    "Power2": 3497,
    "enforceability</w>": 3498,
    "SS": 3499,
    "partnership</w>": 3500,
    "registrations</w>": 3501,
    "Authorized</w>": 3502,
    "42</w>": 3503,
    "Gross</w>": 3504,
    "average</w>": 3505,
    "Inktomi</w>": 3506,
    "7.3</w>": 3507,
    "non-exclusive,</w>": 3508,
    "-0": 3509,
    "Adaptimmune</w>": 3510,
    "(y)</w>": 3511,
    "Operations</w>": 3512,
    "dates</w>": 3513,
    "method</w>": 3514,
    "properties</w>": 3515,
    "Your</w>": 3516,
    "j)</w>": 3517,
    "Vericel</w>": 3518,
    "ipien": 3519,
    "withholding</w>": 3520,
    "loss,</w>": 3521,
    "submission</w>": 3522,
    "advertising,</w>": 3523,
    "samples</w>": 3524,
    "ian": 3525,
    "waive</w>": 3526,
    "PC": 3527,
    "Note</w>": 3528,
    "-T": 3529,
    "------------------------------------------------------------------------------------</w>": 3530,
    "Vapother": 3531,
    "AGREEMENT.pdf</w>": 3532,
    "suppliers</w>": 3533,
    "million</w>": 3534,
    "4.4</w>": 3535,
    "I's</w>": 3536,
    "Designated</w>": 3537,
    "derived</w>": 3538,
    "/A,</w>": 3539,
    "fulfill</w>": 3540,
    "attributable</w>": 3541,
    "ON.</w>": 3542,
    "misle": 3543,
    "twenty</w>": 3544,
    "M-": 3545,
    "DIALO": 3546,
    "Wild": 3547,
    "cy.</w>": 3548,
    "jurisdiction.</w>": 3549,
    "economic</w>": 3550,
    "Counsel</w>": 3551,
    "judgment,</w>": 3552,
    "delivery,</w>": 3553,
    "specifications,</w>": 3554,
    "10.2</w>": 3555,
    "RIGHTS</w>": 3556,
    "Legal</w>": 3557,
    "Referen": 3558,
    "ization</w>": 3559,
    "Losses</w>": 3560,
    "conver": 3561,
    "D)</w>": 3562,
    "Rate</w>": 3563,
    "Writing</w>": 3564,
    "July</w>": 3565,
    "Fiscal</w>": 3566,
    "Datec</w>": 3567,
    "Provider": 3568,
    "reimbursement</w>": 3569,
    "reason,</w>": 3570,
    "relates</w>": 3571,
    "goods</w>": 3572,
    "Iden": 3573,
    "trial</w>": 3574,
    "Date\"</w>": 3575,
    "D,</w>": 3576,
    "natural</w>": 3577,
    "ending</w>": 3578,
    "iteria</w>": 3579,
    "Version</w>": 3580,
    "CHT</w>": 3581,
    "Kallo</w>": 3582,
    "bankruptcy,</w>": 3583,
    "accrued</w>": 3584,
    "sales,</w>": 3585,
    "consent.</w>": 3586,
    "named</w>": 3587,
    "Following</w>": 3588,
    "CEO</w>": 3589,
    "rejec": 3590,
    "on,</w>": 3591,
    "BSP</w>": 3592,
    "faith": 3593,
    "specify</w>": 3594,
    "fiscal</w>": 3595,
    "language</w>": 3596,
    "usage</w>": 3597,
    "ONS</w>": 3598,
    "Laws,</w>": 3599,
    "Enter": 3600,
    "Equip": 3601,
    "Directors</w>": 3602,
    "practices</w>": 3603,
    "Hotel</w>": 3604,
    "eD": 3605,
    "Company-Skype</w>": 3606,
    "(with</w>": 3607,
    "ation;</w>": 3608,
    "shipped</w>": 3609,
    "ild</w>": 3610,
    "pharmaceutical</w>": 3611,
    "subjec": 3612,
    "DEV": 3613,
    "(R": 3614,
    "k)</w>": 3615,
    "occurred</w>": 3616,
    "Gas</w>": 3617,
    "HSN": 3618,
    "hereafter</w>": 3619,
    "date,</w>": 3620,
    "headings</w>": 3621,
    "courts</w>": 3622,
    "confirmed</w>": 3623,
    "injunctive</w>": 3624,
    "GA": 3625,
    "telephone</w>": 3626,
    "on-": 3627,
    "contrary,</w>": 3628,
    "10/": 3629,
    "Obligations</w>": 3630,
    "i's</w>": 3631,
    "Box": 3632,
    "Tool": 3633,
    "units</w>": 3634,
    "SY": 3635,
    "directed</w>": 3636,
    "L.": 3637,
    "royalties</w>": 3638,
    "Entity</w>": 3639,
    "p.</w>": 3640,
    "CAP": 3641,
    "-A</w>": 3642,
    "Pfizer</w>": 3643,
    "AEIS</w>": 3644,
    "JOHN'S</w>": 3645,
    "techni": 3646,
    "rendered</w>": 3647,
    "def": 3648,
    "41</w>": 3649,
    "complain": 3650,
    "various</w>": 3651,
    "Av": 3652,
    "SMBC</w>": 3653,
    "Bachem</w>": 3654,
    "records,</w>": 3655,
    "privacy</w>": 3656,
    "Q</w>": 3657,
    "B's</w>": 3658,
    "[***];</w>": 3659,
    "1.6": 3660,
    "Restauran": 3661,
    "COMMISSION.</w>": 3662,
    "AFR": 3663,
    "Converge</w>": 3664,
    "EXCL": 3665,
    "property,</w>": 3666,
    "ging</w>": 3667,
    "ceable,</w>": 3668,
    "atch</w>": 3669,
    "terminates</w>": 3670,
    "WAI": 3671,
    "8.3</w>": 3672,
    "King": 3673,
    "Assignment</w>": 3674,
    "product,</w>": 3675,
    "differen": 3676,
    "WHETHER</w>": 3677,
    "Number</w>": 3678,
    "IZ": 3679,
    "international</w>": 3680,
    "Boar": 3681,
    "REPRESENTATIONS</w>": 3682,
    "percentage</w>": 3683,
    "conve": 3684,
    "46": 3685,
    "Fiel": 3686,
    "-2019</w>": 3687,
    "Pool</w>": 3688,
    "SHP": 3689,
    "DCL</w>": 3690,
    "1.3</w>": 3691,
    "worldwide</w>": 3692,
    "\"Confidential</w>": 3693,
    "Customer,</w>": 3694,
    "Components</w>": 3695,
    "insurance,</w>": 3696,
    "Existing</w>": 3697,
    "2.6</w>": 3698,
    "ly.</w>": 3699,
    "financing</w>": 3700,
    "TERMS</w>": 3701,
    "CERTAIN</w>": 3702,
    "execution,</w>": 3703,
    "HE": 3704,
    "judicial</w>": 3705,
    "Coven": 3706,
    "online</w>": 3707,
    "Supplier's</w>": 3708,
    "API</w>": 3709,
    "Ve": 3710,
    "while</w>": 3711,
    "OUT</w>": 3712,
    "\"B": 3713,
    "If,</w>": 3714,
    "might</w>": 3715,
    "L,</w>": 3716,
    "29": 3717,
    "T&": 3718,
    "ENERGO": 3719,
    "HAR": 3720,
    "addresses</w>": 3721,
    "treat": 3722,
    "23": 3723,
    "relative</w>": 3724,
    "August</w>": 3725,
    "contractors,</w>": 3726,
    "prospectus</w>": 3727,
    "agency,</w>": 3728,
    "STA": 3729,
    "resources</w>": 3730,
    "out-of-": 3731,
    "pir": 3732,
    "understanding</w>": 3733,
    "register</w>": 3734,
    "ACK": 3735,
    "trademark,</w>": 3736,
    "prevailing</w>": 3737,
    "by-": 3738,
    "lot</w>": 3739,
    "Administrator</w>": 3740,
    "MEDIC": 3741,
    "Time's</w>": 3742,
    "SL</w>": 3743,
    "ull</w>": 3744,
    "indemnity</w>": 3745,
    "sym": 3746,
    "withhold</w>": 3747,
    "involved</w>": 3748,
    "fault</w>": 3749,
    "Access</w>": 3750,
    "subscr": 3751,
    "SERVICERS</w>": 3752,
    "context</w>": 3753,
    "text</w>": 3754,
    "T.</w>": 3755,
    "strict</w>": 3756,
    "authorities</w>": 3757,
    "facilitate</w>": 3758,
    "ARI": 3759,
    "operated</w>": 3760,
    "Notices</w>": 3761,
    "Subscr": 3762,
    "Year,</w>": 3763,
    "operational</w>": 3764,
    "Combination</w>": 3765,
    "PF": 3766,
    "respond</w>": 3767,
    "acc": 3768,
    "Elec": 3769,
    "error": 3770,
    "valuable</w>": 3771,
    "significant</w>": 3772,
    "APE": 3773,
    "APEUTIC": 3774,
    "Table</w>": 3775,
    "design,</w>": 3776,
    "filings</w>": 3777,
    "Certificate</w>": 3778,
    "brackets,</w>": 3779,
    "Dyn": 3780,
    "R&": 3781,
    "Franchisee's</w>": 3782,
    "HealthGate</w>": 3783,
    "sions,</w>": 3784,
    "authority,</w>": 3785,
    "inciden": 3786,
    "effect,</w>": 3787,
    "inquir": 3788,
    "5.4</w>": 3789,
    "9.3</w>": 3790,
    "Trademark": 3791,
    "holders,</w>": 3792,
    "derivative</w>": 3793,
    "PHL</w>": 3794,
    "IF</w>": 3795,
    "relate</w>": 3796,
    "collectively,</w>": 3797,
    "deficien": 3798,
    "audited</w>": 3799,
    "Safety</w>": 3800,
    "customary</w>": 3801,
    "anticipated</w>": 3802,
    "measures</w>": 3803,
    "45": 3804,
    "disposition</w>": 3805,
    "Inventions</w>": 3806,
    "real</w>": 3807,
    "(vii)</w>": 3808,
    "Lease</w>": 3809,
    "Patents,</w>": 3810,
    "Fr": 3811,
    "DATA</w>": 3812,
    "Target</w>": 3813,
    "Projec": 3814,
    "R&D</w>": 3815,
    "arbitrator": 3816,
    "Ox": 3817,
    "vote</w>": 3818,
    "material": 3819,
    "Elig": 3820,
    "Contractor's</w>": 3821,
    "2.2": 3822,
    "Play": 3823,
    "HA": 3824,
    "F.</w>": 3825,
    "OW": 3826,
    "satisfy</w>": 3827,
    "consecutive</w>": 3828,
    "THERAPEUTIC": 3829,
    "CARD": 3830,
    "0.": 3831,
    "misappropri": 3832,
    "arly</w>": 3833,
    "immediate</w>": 3834,
    "identif": 3835,
    "fifty</w>": 3836,
    "ik": 3837,
    "National</w>": 3838,
    "consummation</w>": 3839,
    "HOLDIN": 3840,
    "Diplomat</w>": 3841,
    "GROUP</w>": 3842,
    "Second</w>": 3843,
    "IBM's</w>": 3844,
    "CA": 3845,
    "courier</w>": 3846,
    "rule</w>": 3847,
    "DEVELO": 3848,
    "Es": 3849,
    "WHICH</w>": 3850,
    "occurs</w>": 3851,
    "Cooperation</w>": 3852,
    "e.,</w>": 3853,
    "CELEBR": 3854,
    "Series</w>": 3855,
    "October</w>": 3856,
    "Exhibits</w>": 3857,
    "prospective</w>": 3858,
    "maje": 3859,
    "PRI": 3860,
    "Environmental</w>": 3861,
    "s/": 3862,
    "non-exclusive</w>": 3863,
    "TECHNOLOGIES</w>": 3864,
    "affiliate</w>": 3865,
    "NATION": 3866,
    "Exclusive</w>": 3867,
    "Partnership</w>": 3868,
    "Gr": 3869,
    "THERAPEUTICS,</w>": 3870,
    "Eutectix</w>": 3871,
    "title,</w>": 3872,
    "copyright,</w>": 3873,
    "regulation,</w>": 3874,
    "defend,</w>": 3875,
    "6.4</w>": 3876,
    "Personnel</w>": 3877,
    "schedules</w>": 3878,
    "10.3</w>": 3879,
    "CS": 3880,
    "pho": 3881,
    "DEVELOP": 3882,
    "Total</w>": 3883,
    "TAX": 3884,
    "inventor": 3885,
    "PEN": 3886,
    "meanings</w>": 3887,
    "U.S.C.</w>": 3888,
    "Avail": 3889,
    "RR": 3890,
    "Origin": 3891,
    "supporting</w>": 3892,
    "contracting</w>": 3893,
    "Philip": 3894,
    "analysis</w>": 3895,
    "43</w>": 3896,
    "02</w>": 3897,
    "ger,</w>": 3898,
    "A-": 3899,
    "BN": 3900,
    "Leader": 3901,
    "E.p": 3902,
    "out-of-pocket</w>": 3903,
    "Notices.</w>": 3904,
    "Severability.</w>": 3905,
    "basis.</w>": 3906,
    "refund</w>": 3907,
    "Property,</w>": 3908,
    "etc": 3909,
    "exercising</w>": 3910,
    "i,</w>": 3911,
    "WOR": 3912,
    "33": 3913,
    "Covenan": 3914,
    "IL</w>": 3915,
    "applicable)</w>": 3916,
    "Sponsorship</w>": 3917,
    "Fee": 3918,
    "eDiets</w>": 3919,
    "Women.com</w>": 3920,
    "F.": 3921,
    "countries</w>": 3922,
    "coordin": 3923,
    "English</w>": 3924,
    "PRODUCT</w>": 3925,
    "EVENT</w>": 3926,
    "EACH</w>": 3927,
    "49</w>": 3928,
    "Taxes</w>": 3929,
    "|</w>": 3930,
    "wishes</w>": 3931,
    "venture</w>": 3932,
    "how,</w>": 3933,
    "invoices</w>": 3934,
    "collected</w>": 3935,
    "subsequently</w>": 3936,
    "v</w>": 3937,
    "loo": 3938,
    "i-": 3939,
    "Book</w>": 3940,
    "RESEAR": 3941,
    "*****</w>": 3942,
    "JOINT</w>": 3943,
    "business.</w>": 3944,
    "absol": 3945,
    "loading</w>": 3946,
    "prohibited</w>": 3947,
    "corresponden": 3948,
    "48</w>": 3949,
    "ty-five</w>": 3950,
    "75": 3951,
    "Buyer": 3952,
    "Team</w>": 3953,
    "Gar": 3954,
    "Heritage</w>": 3955,
    "import</w>": 3956,
    "alternative</w>": 3957,
    "(for</w>": 3958,
    "consideration,</w>": 3959,
    "sponsorship</w>": 3960,
    "patents,</w>": 3961,
    "authorizations</w>": 3962,
    "programs,</w>": 3963,
    "J.</w>": 3964,
    "(j)</w>": 3965,
    "(l": 3966,
    "legal,</w>": 3967,
    "Vill": 3968,
    "TAG</w>": 3969,
    "D2</w>": 3970,
    "dispute,</w>": 3971,
    "Assignment.</w>": 3972,
    "Business.</w>": 3973,
    "ick": 3974,
    "conditions,</w>": 3975,
    ":/": 3976,
    "consult</w>": 3977,
    "Conditions</w>": 3978,
    "(i.e.,</w>": 3979,
    "Infringement</w>": 3980,
    "milestone</w>": 3981,
    "Relation": 3982,
    "Nu": 3983,
    "1/23/2020</w>": 3984,
    "Leaders": 3985,
    "MFP</w>": 3986,
    "sal": 3987,
    "South</w>": 3988,
    "Pricing</w>": 3989,
    "SEQU": 3990,
    "iver.</w>": 3991,
    "DEFINITIONS</w>": 3992,
    ".)</w>": 3993,
    "CONFIDENTIALITY</w>": 3994,
    "sence</w>": 3995,
    "Columbia</w>": 3996,
    "mess": 3997,
    "Notes</w>": 3998,
    "health": 3999,
    "recovery</w>": 4000,
    "RESEARCH</w>": 4001,
    "Segment</w>": 4002,
    "Vapotherm</w>": 4003,
    "City</w>": 4004,
    "regular</w>": 4005,
    "quo": 4006,
    "date.</w>": 4007,
    "Materials.</w>": 4008,
    "human</w>": 4009,
    "SYST": 4010,
    "30,</w>": 4011,
    "entry</w>": 4012,
    "invoiced</w>": 4013,
    "m)</w>": 4014,
    "other,</w>": 4015,
    "Officer": 4016,
    "4.5</w>": 4017,
    "Schoolpop</w>": 4018,
    "Wildform</w>": 4019,
    "Playbo": 4020,
    "ra": 4021,
    "entirety</w>": 4022,
    "Majeure.</w>": 4023,
    "Febr": 4024,
    "PURSU": 4025,
    "PURSUANT</w>": 4026,
    "intention</w>": 4027,
    "ARY</w>": 4028,
    "Office</w>": 4029,
    "conflicts</w>": 4030,
    "wit": 4031,
    "handling</w>": 4032,
    "(7)</w>": 4033,
    "50%</w>": 4034,
    "Order,</w>": 4035,
    "death</w>": 4036,
    "CONSEQU": 4037,
    "unenforceable,</w>": 4038,
    "Software": 4039,
    "SUBJECT</w>": 4040,
    "oh": 4041,
    "WILL</w>": 4042,
    "GH": 4043,
    "assigns.</w>": 4044,
    "7.4</w>": 4045,
    "so,</w>": 4046,
    "inability</w>": 4047,
    "CONTROL</w>": 4048,
    "soug": 4049,
    "BO": 4050,
    "V.</w>": 4051,
    "requisite</w>": 4052,
    "iciar": 4053,
    "A\"</w>": 4054,
    "Settlement</w>": 4055,
    "3/30/": 4056,
    "patent,</w>": 4057,
    "delayed</w>": 4058,
    "(2": 4059,
    "patents</w>": 4060,
    "MISCELLANE": 4061,
    "MISCELLANEO": 4062,
    "REDAC": 4063,
    "gh</w>": 4064,
    "://": 4065,
    "late</w>": 4066,
    "85</w>": 4067,
    "West</w>": 4068,
    "Premier</w>": 4069,
    "Receivable</w>": 4070,
    "dissol": 4071,
    "representation,</w>": 4072,
    "Cell</w>": 4073,
    "notifies</w>": 4074,
    "clauses</w>": 4075,
    "Senior</w>": 4076,
    "Priv": 4077,
    "month,</w>": 4078,
    "di": 4079,
    "Ltd.</w>": 4080,
    "CUT": 4081,
    "CUTANE": 4082,
    "HC": 4083,
    "disputed</w>": 4084,
    "According": 4085,
    "necessary,</w>": 4086,
    "s).</w>": 4087,
    "drug</w>": 4088,
    "restriction</w>": 4089,
    "withheld.</w>": 4090,
    "render</w>": 4091,
    "accountan": 4092,
    "ur</w>": 4093,
    "Diversinet</w>": 4094,
    "e-cen": 4095,
    "Magenta</w>": 4096,
    "VRR": 4097,
    "VNE</w>": 4098,
    "undertake</w>": 4099,
    "assigns,</w>": 4100,
    "beneficial</w>": 4101,
    "DEVELOPMENT</w>": 4102,
    "htt": 4103,
    "http": 4104,
    "admin": 4105,
    "board</w>": 4106,
    "Advanced</w>": 4107,
    "LUTION</w>": 4108,
    "NA</w>": 4109,
    "NAI</w>": 4110,
    "Specific</w>": 4111,
    "Accordingly,</w>": 4112,
    "Agreement\"),</w>": 4113,
    "IMPLIED</w>": 4114,
    "DELIVER": 4115,
    "C/": 4116,
    "ongoing</w>": 4117,
    "ic,</w>": 4118,
    "(to</w>": 4119,
    "47</w>": 4120,
    "Agreement.pdf</w>": 4121,
    "Waiver</w>": 4122,
    "Court</w>": 4123,
    "(on</w>": 4124,
    "Energy</w>": 4125,
    "Co-Host</w>": 4126,
    "you,</w>": 4127,
    "FCE</w>": 4128,
    "HSNS</w>": 4129,
    "Playboy</w>": 4130,
    "Power2Ship</w>": 4131,
    "Hydras": 4132,
    "Related</w>": 4133,
    "confirmation</w>": 4134,
    "55": 4135,
    "year,</w>": 4136,
    "achieve</w>": 4137,
    "MERCHANT": 4138,
    "PARTICULAR</w>": 4139,
    "s\"),</w>": 4140,
    "10,</w>": 4141,
    "private</w>": 4142,
    "Major</w>": 4143,
    "consultants</w>": 4144,
    "ende": 4145,
    "cumulative</w>": 4146,
    "OT": 4147,
    "S-": 4148,
    "MAINTENANCE</w>": 4149,
    "C's</w>": 4150,
    "Nan": 4151,
    "SR": 4152,
    "Cards</w>": 4153,
    "NETGEAR</w>": 4154,
    "insolvency</w>": 4155,
    "FO": 4156,
    "76": 4157,
    "necessar": 4158,
    "Distributor.</w>": 4159,
    "purchasing</w>": 4160,
    "eigh": 4161,
    "\"Term": 4162,
    "waives</w>": 4163,
    "REDACTED</w>": 4164,
    "money</w>": 4165,
    "written,</w>": 4166,
    "Invention</w>": 4167,
    "database</w>": 4168,
    "withheld,</w>": 4169,
    "plans,</w>": 4170,
    "standards,</w>": 4171,
    "illary</w>": 4172,
    "Value": 4173,
    "initiate</w>": 4174,
    "SA,</w>": 4175,
    "Rub": 4176,
    "Veh": 4177,
    "Novem": 4178,
    "rights.</w>": 4179,
    "instruments</w>": 4180,
    "FITNESS</w>": 4181,
    "warranties,</w>": 4182,
    "improvements</w>": 4183,
    "verify</w>": 4184,
    "under,</w>": 4185,
    "Product;</w>": 4186,
    "launch</w>": 4187,
    "Var": 4188,
    "tool": 4189,
    "Restricted</w>": 4190,
    "WGT</w>": 4191,
    "3.6</w>": 4192,
    "Product": 4193,
    "commenced</w>": 4194,
    "Articles</w>": 4195,
    "waived</w>": 4196,
    "d;</w>": 4197,
    "2009</w>": 4198,
    "Adj": 4199,
    "ENERGY</w>": 4200,
    "HSWI</w>": 4201,
    "1/21/2020</w>": 4202,
    "know-how,</w>": 4203,
    "negligence,</w>": 4204,
    "executive</w>": 4205,
    "terms.</w>": 4206,
    "EXCLUSI": 4207,
    "LIMITATION</w>": 4208,
    "jor": 4209,
    "individuals</w>": 4210,
    "enforced</w>": 4211,
    "home</w>": 4212,
    "minutes</w>": 4213,
    "furnish": 4214,
    "liquidation</w>": 4215,
    "Laboratory</w>": 4216,
    "displayed</w>": 4217,
    "LICENSEE</w>": 4218,
    "purpose,</w>": 4219,
    "instrument.</w>": 4220,
    "virtue</w>": 4221,
    "1)</w>": 4222,
    "Fax": 4223,
    "lead</w>": 4224,
    "LIABLE</w>": 4225,
    "scien": 4226,
    "hereunder;</w>": 4227,
    "insured</w>": 4228,
    "personally</w>": 4229,
    "AFFI": 4230,
    "AFFILI": 4231,
    "lawful</w>": 4232,
    "Eligible</w>": 4233,
    "merger,</w>": 4234,
    "video</w>": 4235,
    "---------------</w>": 4236,
    "Hydrocar": 4237,
    "Kito": 4238,
    "America,</w>": 4239,
    "MERCHANTABI": 4240,
    ".:</w>": 4241,
    "specif": 4242,
    "regulations.</w>": 4243,
    "INTERNATION": 4244,
    "P.,</w>": 4245,
    "ia": 4246,
    "buil": 4247,
    "22/": 4248,
    "SION</w>": 4249,
    "Carg": 4250,
    "Stry": 4251,
    "DIALOG</w>": 4252,
    "IMNT": 4253,
    "VRRM-": 4254,
    "VRRM-MFP</w>": 4255,
    "Email:</w>": 4256,
    "forth": 4257,
    "ATT": 4258,
    "Vol": 4259,
    "A.": 4260,
    "purposes.</w>": 4261,
    "customers,</w>": 4262,
    "revenues</w>": 4263,
    "Enfor": 4264,
    "SOUR": 4265,
    "HOLDINGS,</w>": 4266,
    "_EX-10.": 4267,
    "stream</w>": 4268,
    "Months</w>": 4269,
    "Nuance</w>": 4270,
    "Publishers</w>": 4271,
    "subcontractors</w>": 4272,
    "Counterparts.</w>": 4273,
    "Provide</w>": 4274,
    "8)</w>": 4275,
    "))</w>": 4276,
    "PAYMENT</w>": 4277,
    "Texas</w>": 4278,
    "s\").</w>": 4279,
    "(50": 4280,
    "types</w>": 4281,
    "implied,</w>": 4282,
    "49": 4283,
    "Registered</w>": 4284,
    "Nantz": 4285,
    "\"C": 4286,
    "Addres": 4287,
    "11/8/": 4288,
    "Boxlot</w>": 4289,
    "civil</w>": 4290,
    "inser": 4291,
    "mortg": 4292,
    "Ob": 4293,
    "year.</w>": 4294,
    "sections</w>": 4295,
    "suitable</w>": 4296,
    "whatsoever,</w>": 4297,
    "8.4</w>": 4298,
    "ney</w>": 4299,
    "insolvency,</w>": 4300,
    "court,</w>": 4301,
    "(k)</w>": 4302,
    "broad": 4303,
    "defaulting</w>": 4304,
    "Gal": 4305,
    "analy": 4306,
    "AT&T's</w>": 4307,
    "a.m.</w>": 4308,
    "Honey": 4309,
    "e-mail</w>": 4310,
    "ug": 4311,
    "Due</w>": 4312,
    "major": 4313,
    "-up</w>": 4314,
    "Responsib": 4315,
    "destroy</w>": 4316,
    "intends</w>": 4317,
    "accepts</w>": 4318,
    "2007</w>": 4319,
    "orders,</w>": 4320,
    "consultation</w>": 4321,
    "Act.</w>": 4322,
    "offers</w>": 4323,
    "Thir": 4324,
    "AZUL</w>": 4325,
    "F-1/A,</w>": 4326,
    "APPENDI": 4327,
    "APPENDIX</w>": 4328,
    "On2</w>": 4329,
    "Intu": 4330,
    "Mul": 4331,
    "Fax:</w>": 4332,
    "arch": 4333,
    "wire</w>": 4334,
    "guarantee</w>": 4335,
    "Professional</w>": 4336,
    "SCI": 4337,
    "LR": 4338,
    "Plaz": 4339,
    "month.</w>": 4340,
    "(n": 4341,
    "Authority.</w>": 4342,
    "royalty-free,</w>": 4343,
    "Action</w>": 4344,
    "Galax": 4345,
    "20/": 4346,
    "Replacement</w>": 4347,
    "FA</w>": 4348,
    "website</w>": 4349,
    "Ke": 4350,
    "amic</w>": 4351,
    "STAAR</w>": 4352,
    "\"Agreement\")</w>": 4353,
    "November</w>": 4354,
    "control.</w>": 4355,
    "recipient</w>": 4356,
    "February</w>": 4357,
    "illment</w>": 4358,
    "expressed</w>": 4359,
    "sentence</w>": 4360,
    "protective</w>": 4361,
    "10.4</w>": 4362,
    "supplies</w>": 4363,
    "thereof;</w>": 4364,
    "Trials</w>": 4365,
    "Companion</w>": 4366,
    "3/30/2020</w>": 4367,
    "/M": 4368,
    "Village</w>": 4369,
    "breach.</w>": 4370,
    "2.7</w>": 4371,
    "CONSULT": 4372,
    "methods,</w>": 4373,
    "monitoring</w>": 4374,
    "commitments</w>": 4375,
    "multiple</w>": 4376,
    "GU": 4377,
    "http://": 4378,
    "EQU": 4379,
    "substitute</w>": 4380,
    "ENERGOUS</w>": 4381,
    "Well</w>": 4382,
    "MSL's</w>": 4383,
    "10-12G,</w>": 4384,
    "copyrights,</w>": 4385,
    "confidence</w>": 4386,
    "assign,</w>": 4387,
    "hy": 4388,
    "________________________________": 4389,
    "full": 4390,
    "space</w>": 4391,
    "W.</w>": 4392,
    "(50%)</w>": 4393,
    "granting</w>": 4394,
    "non-breaching</w>": 4395,
    "Joh": 4396,
    "JUR": 4397,
    "purchases</w>": 4398,
    "agent,</w>": 4399,
    "imarily</w>": 4400,
    "vehicle</w>": 4401,
    "Affiliate's</w>": 4402,
    "AV": 4403,
    "Ba": 4404,
    "WLI</w>": 4405,
    "national,</w>": 4406,
    "treatment.</w>": 4407,
    "THIR": 4408,
    "CORPOR": 4409,
    "V,</w>": 4410,
    "territor": 4411,
    "RIGHT</w>": 4412,
    "Inventory</w>": 4413,
    "Authority,</w>": 4414,
    "3.2": 4415,
    "Sn": 4416,
    "Amount</w>": 4417,
    "DISTRIBUTOR</w>": 4418,
    "absolute</w>": 4419,
    "understands</w>": 4420,
    "example,</w>": 4421,
    "shipments</w>": 4422,
    "represented</w>": 4423,
    "gives</w>": 4424,
    "EITHER</w>": 4425,
    "Waiver.</w>": 4426,
    "MISCELLANEOUS</w>": 4427,
    "majority</w>": 4428,
    "6.5</w>": 4429,
    "products.</w>": 4430,
    "daily</w>": 4431,
    "(viii)</w>": 4432,
    "verified</w>": 4433,
    "merger</w>": 4434,
    "Subsidiaries</w>": 4435,
    "Not</w>": 4436,
    "RULE</w>": 4437,
    "functionality</w>": 4438,
    "Corp.</w>": 4439,
    "AT&T,</w>": 4440,
    "ALFA</w>": 4441,
    "\"Party\"</w>": 4442,
    "LITY,</w>": 4443,
    "FORTH</w>": 4444,
    "Notice": 4445,
    "tion;</w>": 4446,
    "FAC": 4447,
    "inventions,</w>": 4448,
    "Employee</w>": 4449,
    "Agent.</w>": 4450,
    "counsel,</w>": 4451,
    "MHCs</w>": 4452,
    "ValueAct</w>": 4453,
    "Members</w>": 4454,
    "Relationship</w>": 4455,
    "ABG</w>": 4456,
    "PUB": 4457,
    "carrier": 4458,
    "notices,</w>": 4459,
    "Further,</w>": 4460,
    "*****": 4461,
    "Il": 4462,
    "tionally</w>": 4463,
    "referenced</w>": 4464,
    "SPECI": 4465,
    "Records</w>": 4466,
    "Accounts</w>": 4467,
    "desire</w>": 4468,
    "INSURANCE</w>": 4469,
    "Stock": 4470,
    "Royalties</w>": 4471,
    "placement</w>": 4472,
    "El</w>": 4473,
    "BNL</w>": 4474,
    "PFHOF</w>": 4475,
    "Date\"),</w>": 4476,
    "Recipien": 4477,
    "maintain,</w>": 4478,
    "designs,</w>": 4479,
    "currency</w>": 4480,
    "warranty,</w>": 4481,
    "INCIDENT": 4482,
    "suits,</w>": 4483,
    "condition,</w>": 4484,
    "implied</w>": 4485,
    "GOVER": 4486,
    "Application,</w>": 4487,
    ",000,000</w>": 4488,
    "Z</w>": 4489,
    "Contin": 4490,
    "Standards</w>": 4491,
    "Applications</w>": 4492,
    "AU": 4493,
    "IZON</w>": 4494,
    "Buy-": 4495,
    "Philips</w>": 4496,
    "Penn": 4497,
    "businesses</w>": 4498,
    "adjustments</w>": 4499,
    "Lead</w>": 4500,
    "avoid</w>": 4501,
    "permits,</w>": 4502,
    "undertaken</w>": 4503,
    "LOSS</w>": 4504,
    "Communications</w>": 4505,
    "JCC</w>": 4506,
    "jour": 4507,
    "ko": 4508,
    "Honeywell</w>": 4509,
    "Flix</w>": 4510,
    "ABS</w>": 4511,
    "levels</w>": 4512,
    "paid,</w>": 4513,
    "Once</w>": 4514,
    "C.F.": 4515,
    "conjunc": 4516,
    "Cur": 4517,
    "side</w>": 4518,
    "TS": 4519,
    "03</w>": 4520,
    "exhibits</w>": 4521,
    "(c)": 4522,
    "Road</w>": 4523,
    "(or,</w>": 4524,
    "idge</w>": 4525,
    "Specifications,</w>": 4526,
    "then,</w>": 4527,
    "JRV": 4528,
    "Driver</w>": 4529,
    "VERIZON</w>": 4530,
    "conce": 4531,
    "Strategic</w>": 4532,
    "Foreign</w>": 4533,
    "Obligations.</w>": 4534,
    "conjunction</w>": 4535,
    "prox": 4536,
    "EXPRESS": 4537,
    "technology,</w>": 4538,
    "respectively,</w>": 4539,
    "package</w>": 4540,
    "effort</w>": 4541,
    "(xx": 4542,
    "CONDITIONS</w>": 4543,
    "manner,</w>": 4544,
    "97": 4545,
    "(R)</w>": 4546,
    "Pipeline</w>": 4547,
    "Subsection</w>": 4548,
    "ardous</w>": 4549,
    "Third-": 4550,
    "dismis": 4551,
    "Where</w>": 4552,
    "uni": 4553,
    "r.</w>": 4554,
    "d\"</w>": 4555,
    "prosecute</w>": 4556,
    "EXPRESSLY</w>": 4557,
    "debts</w>": 4558,
    "found</w>": 4559,
    "criteria</w>": 4560,
    "Tw": 4561,
    "aul": 4562,
    "VERSION</w>": 4563,
    "exter": 4564,
    "Loss</w>": 4565,
    "Vendor's</w>": 4566,
    "BP</w>": 4567,
    "Fox": 4568,
    "LBIO</w>": 4569,
    "Naked</w>": 4570,
    "NETTAX": 4571,
    "RGH": 4572,
    "GENERAL</w>": 4573,
    "USA</w>": 4574,
    "e)</w>": 4575,
    "ASSIGN": 4576,
    "shall:</w>": 4577,
    "IV</w>": 4578,
    "MANU": 4579,
    "98</w>": 4580,
    "legis": 4581,
    "Bank": 4582,
    "food</w>": 4583,
    "Build</w>": 4584,
    "DS/": 4585,
    "izz": 4586,
    "Kitov</w>": 4587,
    "ds.com</w>": 4588,
    "Cisco": 4589,
    "released</w>": 4590,
    "irreparable</w>": 4591,
    "distributors</w>": 4592,
    "ident,</w>": 4593,
    "Agreement),</w>": 4594,
    "front</w>": 4595,
    "NU": 4596,
    "sought</w>": 4597,
    "carried</w>": 4598,
    "returns</w>": 4599,
    "Section,</w>": 4600,
    "San</w>": 4601,
    "86": 4602,
    "Canada</w>": 4603,
    "Sco": 4604,
    "1.7": 4605,
    "$[***]</w>": 4606,
    "AZUL": 4607,
    "3/3/": 4608,
    "Third-Party</w>": 4609,
    "Ginkgo": 4610,
    "Custom": 4611,
    "DNA</w>": 4612,
    "China</w>": 4613,
    "Dynamic</w>": 4614,
    "APCN</w>": 4615,
    "faith,</w>": 4616,
    "counterparts</w>": 4617,
    "facilities,</w>": 4618,
    "defects</w>": 4619,
    "CONNEC": 4620,
    "Conven": 4621,
    "sufficiency</w>": 4622,
    "after,</w>": 4623,
    "features</w>": 4624,
    "permission</w>": 4625,
    "s-": 4626,
    "key</w>": 4627,
    "9.4</w>": 4628,
    "end-": 4629,
    "Provided</w>": 4630,
    "Nantz</w>": 4631,
    "Florid": 4632,
    "Aircraf": 4633,
    "DS/CS-3": 4634,
    "DS/CS-395": 4635,
    "DS/CS-3957/": 4636,
    "-ATR</w>": 4637,
    "3/3/2017</w>": 4638,
    "Intr": 4639,
    "LeadersOnline</w>": 4640,
    "Achaogen": 4641,
    "possible,</w>": 4642,
    ")\"</w>": 4643,
    "5-": 4644,
    "void</w>": 4645,
    "majeure</w>": 4646,
    "ATION,</w>": 4647,
    "restricted</w>": 4648,
    "d's</w>": 4649,
    "since</w>": 4650,
    "agencies</w>": 4651,
    "only,</w>": 4652,
    "primarily</w>": 4653,
    "Know-How,</w>": 4654,
    "Annex</w>": 4655,
    "prosecution</w>": 4656,
    "Spo": 4657,
    "AZUL-ATR</w>": 4658,
    "DS/CS-3957/14/": 4659,
    "DS/CS-3957/14/Issue</w>": 4660,
    "Beacon</w>": 4661,
    "Cargill</w>": 4662,
    "Employees</w>": 4663,
    "JDC</w>": 4664,
    "trust</w>": 4665,
    "PD": 4666,
    "C.F.R.</w>": 4667,
    "Consen": 4668,
    "discovery</w>": 4669,
    "OWNER": 4670,
    "HEREBY</w>": 4671,
    "Expense</w>": 4672,
    "aspects</w>": 4673,
    "3,": 4674,
    "t),</w>": 4675,
    "Call</w>": 4676,
    "M,</w>": 4677,
    "MARKED</w>": 4678,
    "Hydraspin</w>": 4679,
    "21.</w>": 4680,
    "enters</w>": 4681,
    "laws.</w>": 4682,
    "Y'S</w>": 4683,
    "Reference</w>": 4684,
    "packag": 4685,
    "NON-": 4686,
    "undertak": 4687,
    "preliminary</w>": 4688,
    "available,</w>": 4689,
    "fund</w>": 4690,
    "bona</w>": 4691,
    "Receip": 4692,
    "ISA</w>": 4693,
    "hereof": 4694,
    "ho": 4695,
    "Vo": 4696,
    "UND</w>": 4697,
    "Representative</w>": 4698,
    "Sy": 4699,
    "cG": 4700,
    "Our</w>": 4701,
    "CERES/IGER": 4702,
    "E.piphany</w>": 4703,
    "SHP2</w>": 4704,
    "TAT": 4705,
    "programming</w>": 4706,
    "batch</w>": 4707,
    "wish</w>": 4708,
    "ics,</w>": 4709,
    "Date\")</w>": 4710,
    "NEG": 4711,
    "jurisdictions</w>": 4712,
    "counsel": 4713,
    "Affiliate\"</w>": 4714,
    "exploit</w>": 4715,
    "priority</w>": 4716,
    "(5": 4717,
    "Auriem": 4718,
    "Severity</w>": 4719,
    "IMNTV</w>": 4720,
    "Intuit</w>": 4721,
    "AFRICA</w>": 4722,
    "satisfied</w>": 4723,
    "commission</w>": 4724,
    "outlined</w>": 4725,
    "payment,</w>": 4726,
    "qualification</w>": 4727,
    "patients</w>": 4728,
    "perpetu": 4729,
    "conditioned</w>": 4730,
    "reverse</w>": 4731,
    "dispose</w>": 4732,
    "sion.</w>": 4733,
    "obtains</w>": 4734,
    "Insurance.</w>": 4735,
    "3-": 4736,
    "SD": 4737,
    "Rights,</w>": 4738,
    "FCC</w>": 4739,
    "***Confidential</w>": 4740,
    "Fleet</w>": 4741,
    "UNIT</w>": 4742,
    "JV": 4743,
    "CAPSU": 4744,
    "VARI": 4745,
    "[Party": 4746,
    "(this</w>": 4747,
    "ships</w>": 4748,
    "Indemnification.</w>": 4749,
    "choice</w>": 4750,
    "disbur": 4751,
    "employ</w>": 4752,
    "billing</w>": 4753,
    "Prin": 4754,
    "t\")</w>": 4755,
    "series</w>": 4756,
    "obligation": 4757,
    "Warranties.</w>": 4758,
    "laboratory</w>": 4759,
    "removal</w>": 4760,
    "uing</w>": 4761,
    "t\"),</w>": 4762,
    "lieu</w>": 4763,
    "suspend</w>": 4764,
    "dary</w>": 4765,
    "Managers</w>": 4766,
    "406</w>": 4767,
    "Fe": 4768,
    "SK": 4769,
    "[CERES/IGER": 4770,
    "SutroVax": 4771,
    "I)</w>": 4772,
    "contents</w>": 4773,
    "Jurisdic": 4774,
    "Cell": 4775,
    "America": 4776,
    "coordinate</w>": 4777,
    "releases</w>": 4778,
    "No.:</w>": 4779,
    "LAW</w>": 4780,
    "team</w>": 4781,
    "correspondence</w>": 4782,
    "presented</w>": 4783,
    "Piv": 4784,
    "Enterprise</w>": 4785,
    "stric": 4786,
    "____________": 4787,
    "transmitted</w>": 4788,
    "reorganization,</w>": 4789,
    "understandings</w>": 4790,
    "cy": 4791,
    "Telnet</w>": 4792,
    "combined</w>": 4793,
    "engineering</w>": 4794,
    "shareholders,</w>": 4795,
    "Improvements</w>": 4796,
    "ault</w>": 4797,
    "ialty</w>": 4798,
    "Vis": 4799,
    "exemp": 4800,
    "fide</w>": 4801,
    "Regulations,</w>": 4802,
    "THIRD</w>": 4803,
    "E:</w>": 4804,
    "UC": 4805,
    "effectiveness</w>": 4806,
    "trust,</w>": 4807,
    "KI,</w>": 4808,
    "Consultan": 4809,
    "Patents.</w>": 4810,
    "ft</w>": 4811,
    "MI": 4812,
    "Transporter's</w>": 4813,
    "high</w>": 4814,
    "CELEBRITY</w>": 4815,
    "G's</w>": 4816,
    "Intri": 4817,
    "Qualigen": 4818,
    "AJR</w>": 4819,
    "injunction</w>": 4820,
    "paragraphs</w>": 4821,
    "Ty": 4822,
    "mission,</w>": 4823,
    "Quarterly</w>": 4824,
    "transfers</w>": 4825,
    "import,</w>": 4826,
    "([***]": 4827,
    "Ca": 4828,
    "BIO": 4829,
    "DESIGN": 4830,
    "pream": 4831,
    "CERES-IGER</w>": 4832,
    "Goose": 4833,
    "Goosehead</w>": 4834,
    "Inhib": 4835,
    "things,</w>": 4836,
    "2004</w>": 4837,
    "(unless</w>": 4838,
    "Definitions</w>": 4839,
    "improper</w>": 4840,
    "worldwide,</w>": 4841,
    "f-": 4842,
    "X,</w>": 4843,
    "consulting</w>": 4844,
    "Risk</w>": 4845,
    "prescribed</w>": 4846,
    "rule,</w>": 4847,
    "(l)</w>": 4848,
    "country,</w>": 4849,
    "PS</w>": 4850,
    "Under": 4851,
    "Corio": 4852,
    "Rubicon</w>": 4853,
    "XC</w>": 4854,
    "Road,</w>": 4855,
    "INFR": 4856,
    "04</w>": 4857,
    "acknowledged,</w>": 4858,
    "recommend": 4859,
    "possession,</w>": 4860,
    "hours,</w>": 4861,
    "filing,</w>": 4862,
    "engineer": 4863,
    "S'</w>": 4864,
    "creation</w>": 4865,
    "versions</w>": 4866,
    "MC</w>": 4867,
    "Digital</w>": 4868,
    "PHARMACEUTICALS,</w>": 4869,
    "MANAGEMENT</w>": 4870,
    "Owner's</w>": 4871,
    "Stryker</w>": 4872,
    "theglobe</w>": 4873,
    "van": 4874,
    "debt</w>": 4875,
    "CONNECTION</w>": 4876,
    "Expiration</w>": 4877,
    "Note": 4878,
    "22.</w>": 4879,
    "5.5</w>": 4880,
    "Airspan": 4881,
    "loan</w>": 4882,
    "summary</w>": 4883,
    "discussions</w>": 4884,
    "evaluation</w>": 4885,
    "2008</w>": 4886,
    "Vir": 4887,
    "Activities</w>": 4888,
    "interfere</w>": 4889,
    "Shipper's</w>": 4890,
    "Address:</w>": 4891,
    "Exerc": 4892,
    "Items</w>": 4893,
    "LOO": 4894,
    "SpinRecor": 4895,
    "TPH-A</w>": 4896,
    "monitor</w>": 4897,
    "delayed.</w>": 4898,
    "Gl": 4899,
    "(e.g.</w>": 4900,
    "Date;</w>": 4901,
    "8.5</w>": 4902,
    "target</w>": 4903,
    "David</w>": 4904,
    "asserted</w>": 4905,
    "(without</w>": 4906,
    "promotion,</w>": 4907,
    "\"Initial</w>": 4908,
    "MATERI": 4909,
    "sold,</w>": 4910,
    "Chairman</w>": 4911,
    "Out</w>": 4912,
    "51</w>": 4913,
    "Galaxy</w>": 4914,
    "Inc_": 4915,
    "Alter": 4916,
    "Key</w>": 4917,
    "JEC": 4918,
    "CUTANEA</w>": 4919,
    "Purchaser": 4920,
    "T&B</w>": 4921,
    "WYZZ-T": 4922,
    "financ": 4923,
    "know-how</w>": 4924,
    "complying</w>": 4925,
    "below),</w>": 4926,
    "creditors</w>": 4927,
    "TIVE</w>": 4928,
    "senior</w>": 4929,
    "ATE": 4930,
    "exist</w>": 4931,
    "(provided</w>": 4932,
    "http://www.": 4933,
    "Technologies,</w>": 4934,
    "10.5</w>": 4935,
    "size</w>": 4936,
    "01.</w>": 4937,
    "ACTION</w>": 4938,
    "Expenses.</w>": 4939,
    "suspension</w>": 4940,
    "singular</w>": 4941,
    "Privacy</w>": 4942,
    "Electron": 4943,
    "10-K/A,</w>": 4944,
    "vigilance</w>": 4945,
    "\"[***]": 4946,
    "Analysis</w>": 4947,
    "Equity</w>": 4948,
    "True": 4949,
    "SONY</w>": 4950,
    "PHASEBIO</w>": 4951,
    "carrying</w>": 4952,
    "partners,</w>": 4953,
    "1st</w>": 4954,
    "refund": 4955,
    "invoice.</w>": 4956,
    "DISPUT": 4957,
    "connected</w>": 4958,
    "manu": 4959,
    "WARRANTIES,</w>": 4960,
    "venture,</w>": 4961,
    "twenty-": 4962,
    "H.</w>": 4963,
    "elsewhere</w>": 4964,
    "g-": 4965,
    "(E": 4966,
    "Beneficiar": 4967,
    "week</w>": 4968,
    "useful</w>": 4969,
    "develop,</w>": 4970,
    "absence</w>": 4971,
    "CUSTO": 4972,
    "four": 4973,
    "Altern": 4974,
    "FTE</w>": 4975,
    "co-branded</w>": 4976,
    "suite</w>": 4977,
    "Petroleum</w>": 4978,
    "Solution</w>": 4979,
    "Gathering</w>": 4980,
    "Snap</w>": 4981,
    "Compounds</w>": 4982,
    "e-centives</w>": 4983,
    "Unit-Hol": 4984,
    "rio": 4985,
    "war,</w>": 4986,
    "recorded</w>": 4987,
    "equity,</w>": 4988,
    "ing;</w>": 4989,
    "INFRIN": 4990,
    "Regional</w>": 4991,
    "PERFORMANCE</w>": 4992,
    "PS": 4993,
    "latest</w>": 4994,
    "forum</w>": 4995,
    "Offering,</w>": 4996,
    "(F": 4997,
    "ceases</w>": 4998,
    "Technology,</w>": 4999,
    "voluntary</w>": 5000,
    "Exper": 5001,
    "EMV</w>": 5002,
    "20-F": 5003,
    "Aucta</w>": 5004,
    "Exercise</w>": 5005,
    "SENDER</w>": 5006,
    "HERC</w>": 5007,
    "Zogenix": 5008,
    "3.7</w>": 5009,
    "Pennsy": 5010,
    "Pennsyl": 5011,
    "Pennsylvan": 5012,
    "___</w>": 5013,
    "fulfillment</w>": 5014,
    "backup</w>": 5015,
    "IMPLIED,</w>": 5016,
    "environment</w>": 5017,
    "assessment</w>": 5018,
    "5%</w>": 5019,
    "options</w>": 5020,
    "infl": 5021,
    "transport</w>": 5022,
    "ans": 5023,
    "lawfully</w>": 5024,
    "accessible</w>": 5025,
    "ry</w>": 5026,
    "taxing</w>": 5027,
    "sp": 5028,
    "FRANCHISE": 5029,
    "(n)</w>": 5030,
    "gency</w>": 5031,
    "(D)</w>": 5032,
    "custom": 5033,
    "Merchant's</w>": 5034,
    "7.5</w>": 5035,
    "minimize</w>": 5036,
    "Companies</w>": 5037,
    "Changes</w>": 5038,
    "study</w>": 5039,
    "maintenance,</w>": 5040,
    "GOVERN": 5041,
    "suffered</w>": 5042,
    "Loan</w>": 5043,
    "subsection</w>": 5044,
    "banking</w>": 5045,
    "\"Third</w>": 5046,
    "mean,</w>": 5047,
    "\"Affiliate\"</w>": 5048,
    "frequency</w>": 5049,
    "executing</w>": 5050,
    "up,</w>": 5051,
    "Primary</w>": 5052,
    "uity</w>": 5053,
    "q.</w>": 5054,
    "Owner,</w>": 5055,
    "Burger</w>": 5056,
    "nature,</w>": 5057,
    "consents,</w>": 5058,
    "LLP</w>": 5059,
    "proof</w>": 5060,
    "holds</w>": 5061,
    "Payment.</w>": 5062,
    "courier": 5063,
    "original,</w>": 5064,
    "purchaser": 5065,
    "AA": 5066,
    "load</w>": 5067,
    "P.": 5068,
    "materials.</w>": 5069,
    "monies</w>": 5070,
    "guarantees</w>": 5071,
    "2(a)</w>": 5072,
    "sources</w>": 5073,
    "aggregate,</w>": 5074,
    "Avenue,</w>": 5075,
    "copyrights</w>": 5076,
    "NAM": 5077,
    "gas</w>": 5078,
    "Carrier's</w>": 5079,
    "NPC</w>": 5080,
    "2020": 5081,
    "RECIT": 5082,
    "dismissed</w>": 5083,
    "controversy</w>": 5084,
    "44": 5085,
    "SPECIAL,</w>": 5086,
    "Quan": 5087,
    "66": 5088,
    "substantive</w>": 5089,
    "MAK": 5090,
    "customers.</w>": 5091,
    "lease,</w>": 5092,
    "shareholders</w>": 5093,
    "subsidiaries,</w>": 5094,
    "MAY</w>": 5095,
    "undersigned</w>": 5096,
    "Mutual</w>": 5097,
    "thereto),</w>": 5098,
    "instituted</w>": 5099,
    "display,</w>": 5100,
    "COMMERC": 5101,
    "platform</w>": 5102,
    "Derivative</w>": 5103,
    "DESIGNATED</w>": 5104,
    "20-F,</w>": 5105,
    "McDATA</w>": 5106,
    "conduct,</w>": 5107,
    "indebted": 5108,
    "Specification": 5109,
    "forwar": 5110,
    "presentation</w>": 5111,
    "describing</w>": 5112,
    "possible.</w>": 5113,
    "terminating</w>": 5114,
    "scientific</w>": 5115,
    "decide</w>": 5116,
    "acknowledged</w>": 5117,
    "officer,</w>": 5118,
    "condition": 5119,
    "refusal</w>": 5120,
    "owing</w>": 5121,
    "qualify</w>": 5122,
    "Owners</w>": 5123,
    "Granted</w>": 5124,
    "Subscriber</w>": 5125,
    "Special</w>": 5126,
    "electr": 5127,
    "2/5/": 5128,
    "2/5/2020</w>": 5129,
    "Newegg</w>": 5130,
    "Anc": 5131,
    "Ancillary</w>": 5132,
    "Interface</w>": 5133,
    "impres": 5134,
    "Properties</w>": 5135,
    "ct": 5136,
    "eG": 5137,
    "COM</w>": 5138,
    "kept</w>": 5139,
    "Full</w>": 5140,
    "removed</w>": 5141,
    "54</w>": 5142,
    "consist</w>": 5143,
    "FR": 5144,
    "GOL": 5145,
    "2.8</w>": 5146,
    "variety</w>": 5147,
    "CORPORATION</w>": 5148,
    "half</w>": 5149,
    "profit</w>": 5150,
    "REGAR": 5151,
    "representing</w>": 5152,
    "Zano": 5153,
    "Co-": 5154,
    "Licensor's</w>": 5155,
    "Us</w>": 5156,
    "Client.</w>": 5157,
    "Dolph": 5158,
    "Conformis</w>": 5159,
    "8/22/": 5160,
    "S-4/A,</w>": 5161,
    "Constellation</w>": 5162,
    "RGHI</w>": 5163,
    "Confidentiality.</w>": 5164,
    "clients</w>": 5165,
    "la": 5166,
    "letters</w>": 5167,
    "IV": 5168,
    "achieved</w>": 5169,
    "hensive</w>": 5170,
    "unan": 5171,
    "purpose.</w>": 5172,
    "GOO": 5173,
    "Prices</w>": 5174,
    "permanent</w>": 5175,
    "books,</w>": 5176,
    "unpaid</w>": 5177,
    "summar": 5178,
    "reorganization</w>": 5179,
    "'s,</w>": 5180,
    "Interim</w>": 5181,
    "-7": 5182,
    "Wind-": 5183,
    "ML": 5184,
    "energy</w>": 5185,
    "Mortg": 5186,
    "Auriemma</w>": 5187,
    "[Party]</w>": 5188,
    "Website</w>": 5189,
    "ctDNA</w>": 5190,
    "AFSL</w>": 5191,
    "diligence</w>": 5192,
    "Heading": 5193,
    "purposes,</w>": 5194,
    "Furthermore,</w>": 5195,
    "further": 5196,
    "PROVISIONS</w>": 5197,
    "help</w>": 5198,
    "37": 5199,
    "numbers</w>": 5200,
    "fiel": 5201,
    "MANUFAC": 5202,
    "CONTRACT,</w>": 5203,
    "franchisee</w>": 5204,
    "p.": 5205,
    "Co.,</w>": 5206,
    "errors</w>": 5207,
    "48": 5208,
    "points</w>": 5209,
    "yng": 5210,
    "mus": 5211,
    "Japan</w>": 5212,
    "Future</w>": 5213,
    "VALVE</w>": 5214,
    "Bioam": 5215,
    "Client,</w>": 5216,
    "Redacted</w>": 5217,
    "Impressions</w>": 5218,
    "CDx</w>": 5219,
    "HARPO": 5220,
    "HARPOON</w>": 5221,
    "Plazom": 5222,
    "STW</w>": 5223,
    "Pey</w>": 5224,
    "Dir": 5225,
    "NY</w>": 5226,
    "successful</w>": 5227,
    "Appoin": 5228,
    "Oak": 5229,
    "Goods</w>": 5230,
    "permis": 5231,
    "c</w>": 5232,
    "printed</w>": 5233,
    "amendment,</w>": 5234,
    "earthqu": 5235,
    "difference</w>": 5236,
    "techniques,</w>": 5237,
    "return": 5238,
    "MARKETING</w>": 5239,
    "execute,</w>": 5240,
    "OPERATION</w>": 5241,
    "22": 5242,
    "itness</w>": 5243,
    "30-": 5244,
    "settled</w>": 5245,
    "mobile</w>": 5246,
    "volumes</w>": 5247,
    "Sample</w>": 5248,
    "ME</w>": 5249,
    "Bellicum's</w>": 5250,
    "Supplement</w>": 5251,
    "Tripath</w>": 5252,
    "BVI</w>": 5253,
    "Impresse</w>": 5254,
    "assault</w>": 5255,
    "power,</w>": 5256,
    "47": 5257,
    "purchase,</w>": 5258,
    "COUR": 5259,
    "Upgrade</w>": 5260,
    "POSSIBI": 5261,
    "subcontract</w>": 5262,
    "controls,</w>": 5263,
    "eligible</w>": 5264,
    "And</w>": 5265,
    "g,</w>": 5266,
    "By": 5267,
    "56": 5268,
    "Dealer</w>": 5269,
    "\"D": 5270,
    "Qualified</w>": 5271,
    "agreeable</w>": 5272,
    "review,</w>": 5273,
    "high": 5274,
    "Zyng": 5275,
    "quarter,</w>": 5276,
    "JDR": 5277,
    "JRC</w>": 5278,
    "1934.</w>": 5279,
    "3/12/": 5280,
    "3/12/2020</w>": 5281,
    "NICE": 5282,
    "SFJ": 5283,
    "REVO": 5284,
    "REVOLUTION</w>": 5285,
    "MEDICINES,</w>": 5286,
    "1/17/": 5287,
    "1/17/2020</w>": 5288,
    "creditors,</w>": 5289,
    "trustee</w>": 5290,
    "3.3": 5291,
    "tax,</w>": 5292,
    "gin</w>": 5293,
    "CONFIDENTIALIT": 5294,
    "POSSIBILITY</w>": 5295,
    "influen": 5296,
    "environmental</w>": 5297,
    "Installed</w>": 5298,
    "Investigator</w>": 5299,
    "CONSEQUENTIAL</w>": 5300,
    "written.</w>": 5301,
    "equity.</w>": 5302,
    "copyrigh": 5303,
    "stockholders</w>": 5304,
    "Promp": 5305,
    "Exclusivity</w>": 5306,
    "Satur": 5307,
    "Electronic</w>": 5308,
    "fficiency</w>": 5309,
    "--------------</w>": 5310,
    "discount</w>": 5311,
    "SPONSOR": 5312,
    "Sponsor's</w>": 5313,
    "Addendum,</w>": 5314,
    "Funds</w>": 5315,
    "Bench": 5316,
    "IntriCon</w>": 5317,
    "LEA</w>": 5318,
    "NETTAXI</w>": 5319,
    "UPJOHN</w>": 5320,
    "Return</w>": 5321,
    "County,</w>": 5322,
    "Japan": 5323,
    "weeks</w>": 5324,
    "efforts,</w>": 5325,
    "PROPRI": 5326,
    "Volume</w>": 5327,
    "count</w>": 5328,
    "fuel</w>": 5329,
    "understand</w>": 5330,
    "confidential,</w>": 5331,
    "perpetual,</w>": 5332,
    "members,</w>": 5333,
    "INDIREC": 5334,
    "improvements,</w>": 5335,
    "inventions</w>": 5336,
    "ATTACH": 5337,
    "investigation,</w>": 5338,
    ")),</w>": 5339,
    "Seller's</w>": 5340,
    "ood": 5341,
    "ks": 5342,
    "ADDITION": 5343,
    "Notification</w>": 5344,
    "packaging,</w>": 5345,
    "measured</w>": 5346,
    "ZO": 5347,
    "Forty</w>": 5348,
    "11/14/": 5349,
    "NCB</w>": 5350,
    "SpinRecords.com</w>": 5351,
    "WO": 5352,
    "Miscellane": 5353,
    "delegate</w>": 5354,
    "Taxes.</w>": 5355,
    "Payments.</w>": 5356,
    "Identification</w>": 5357,
    "trials</w>": 5358,
    "Addition": 5359,
    "Additionally,</w>": 5360,
    "so.</w>": 5361,
    "shareholder</w>": 5362,
    "11.0": 5363,
    "Receipt</w>": 5364,
    "folio</w>": 5365,
    "vers": 5366,
    "[Signature</w>": 5367,
    "bund": 5368,
    "07/": 5369,
    "r</w>": 5370,
    "Development,</w>": 5371,
    "PARTY'S</w>": 5372,
    "certification</w>": 5373,
    "(iii": 5374,
    "Commit": 5375,
    "MW</w>": 5376,
    "Baidu</w>": 5377,
    "Issuer,</w>": 5378,
    "MasterCard</w>": 5379,
    "Erchon": 5380,
    "Nik": 5381,
    "Endorser</w>": 5382,
    "LTD": 5383,
    "fiduc": 5384,
    "support,</w>": 5385,
    "4.6</w>": 5386,
    "further,</w>": 5387,
    "voluntar": 5388,
    "PROPRIET": 5389,
    "utilizing</w>": 5390,
    "Protection</w>": 5391,
    "Mr.</w>": 5392,
    "d.,</w>": 5393,
    "institution</w>": 5394,
    "REPOR": 5395,
    "diligently</w>": 5396,
    "9.5</w>": 5397,
    "\"Licensed</w>": 5398,
    "establishing</w>": 5399,
    "franchisees</w>": 5400,
    "FEES</w>": 5401,
    "therewith.</w>": 5402,
    "z)</w>": 5403,
    "----------------------------</w>": 5404,
    "maintains</w>": 5405,
    "plural</w>": 5406,
    "succeeding</w>": 5407,
    "mark,</w>": 5408,
    "partners</w>": 5409,
    "Wh": 5410,
    "\"Product</w>": 5411,
    "Illino": 5412,
    "covenants,</w>": 5413,
    "A/": 5414,
    "run</w>": 5415,
    "decision-": 5416,
    "decision-making</w>": 5417,
    "Supplier,</w>": 5418,
    "RF": 5419,
    "CY": 5420,
    "Ltd</w>": 5421,
    "Oil</w>": 5422,
    "ANNEX</w>": 5423,
    "Talent</w>": 5424,
    "Janssen": 5425,
    "subcontractor</w>": 5426,
    "\"Indemnified</w>": 5427,
    "capacity,</w>": 5428,
    "evidencing</w>": 5429,
    "+</w>": 5430,
    "Solutions</w>": 5431,
    "(S": 5432,
    "CONSULTANT</w>": 5433,
    "UM</w>": 5434,
    "injury,</w>": 5435,
    "1.8</w>": 5436,
    "individual,</w>": 5437,
    "5.6</w>": 5438,
    "expertise</w>": 5439,
    "attorney's</w>": 5440,
    "(24)</w>": 5441,
    "YO": 5442,
    "COVEN": 5443,
    "leased</w>": 5444,
    "Holdings,</w>": 5445,
    "-9": 5446,
    "enhancements</w>": 5447,
    "s]</w>": 5448,
    "53</w>": 5449,
    "finished</w>": 5450,
    "anti-": 5451,
    "63": 5452,
    "Owned</w>": 5453,
    "CO-BRAN": 5454,
    "Explo": 5455,
    "Ann": 5456,
    "you.</w>": 5457,
    "Wind-Down</w>": 5458,
    "Area</w>": 5459,
    "POS</w>": 5460,
    "S2": 5461,
    "Developer's</w>": 5462,
    "Bunker</w>": 5463,
    "HERT": 5464,
    "AESAR</w>": 5465,
    "NTC</w>": 5466,
    "RECITALS</w>": 5467,
    "represents,</w>": 5468,
    "_200": 5469,
    "reimbursed</w>": 5470,
    "mortgage,</w>": 5471,
    "refers</w>": 5472,
    "advisors</w>": 5473,
    "below:</w>": 5474,
    "ADAMS</w>": 5475,
    "STRATE": 5476,
    "notifying</w>": 5477,
    "exists</w>": 5478,
    "successfully</w>": 5479,
    "LAW": 5480,
    "evaluate</w>": 5481,
    "ING,</w>": 5482,
    "WORK</w>": 5483,
    "notes</w>": 5484,
    "consisting</w>": 5485,
    "expert</w>": 5486,
    "evidenced</w>": 5487,
    "3/2": 5488,
    "RIT": 5489,
    "always</w>": 5490,
    "ichael</w>": 5491,
    "Binding</w>": 5492,
    "content,</w>": 5493,
    "wireless</w>": 5494,
    "COO": 5495,
    "uidic</w>": 5496,
    "Successor</w>": 5497,
    "Berksh": 5498,
    "Changepoin": 5499,
    "campa": 5500,
    "ATTACHMENT</w>": 5501,
    "Visa</w>": 5502,
    "JRVS</w>": 5503,
    "Metavante": 5504,
    "Dassault</w>": 5505,
    "Niner": 5506,
    "Niners</w>": 5507,
    "Servicer,</w>": 5508,
    "(I)</w>": 5509,
    "Headings.</w>": 5510,
    "Accounting</w>": 5511,
    "3)</w>": 5512,
    "dead": 5513,
    "machine</w>": 5514,
    "PROPRIETARY</w>": 5515,
    "INCIDENTAL,</w>": 5516,
    "Survival.</w>": 5517,
    "mid": 5518,
    "fixed</w>": 5519,
    "save</w>": 5520,
    "PURPOSE</w>": 5521,
    "assignment,</w>": 5522,
    "GL": 5523,
    "number,</w>": 5524,
    "YE": 5525,
    "REVENU": 5526,
    "boar": 5527,
    "demonstrate</w>": 5528,
    "consummate</w>": 5529,
    "broker": 5530,
    "(m)</w>": 5531,
    "range</w>": 5532,
    "nominated</w>": 5533,
    "transmit</w>": 5534,
    "world</w>": 5535,
    "feature</w>": 5536,
    "unique</w>": 5537,
    "manufacturing,</w>": 5538,
    "1.8": 5539,
    "Charges</w>": 5540,
    "Optofl": 5541,
    "Optofluidic</w>": 5542,
    "Consolidated</w>": 5543,
    "HCI</w>": 5544,
    "Oaktree</w>": 5545,
    "TAT-14</w>": 5546,
    "Oxbow</w>": 5547,
    "Verizon</w>": 5548,
    "occurring</w>": 5549,
    "Quo": 5550,
    "PROPERT": 5551,
    "endorsement</w>": 5552,
    "STRATEGIC</w>": 5553,
    "finally</w>": 5554,
    "symbol": 5555,
    "NOWLED": 5556,
    "PivX</w>": 5557,
    "AMEND": 5558,
    "unredacted</w>": 5559,
    "N.": 5560,
    "sentence,</w>": 5561,
    "Covenants</w>": 5562,
    "Pages</w>": 5563,
    "Resolution</w>": 5564,
    "successive</w>": 5565,
    "ADDITIONAL</w>": 5566,
    "Michael</w>": 5567,
    "5.0": 5568,
    "penalties</w>": 5569,
    "Spar": 5570,
    "Indemnitee": 5571,
    "CORP.,</w>": 5572,
    "INTERNATIONAL,</w>": 5573,
    "Cons": 5574,
    "D-": 5575,
    "Instr": 5576,
    "Content,</w>": 5577,
    "America's</w>": 5578,
    "SL": 5579,
    "Financing</w>": 5580,
    "HOVI": 5581,
    "8/99</w>": 5582,
    "NICE'</w>": 5583,
    "UBS</w>": 5584,
    "INC_0": 5585,
    "Provision</w>": 5586,
    "personnel,</w>": 5587,
    "understandings,</w>": 5588,
    "consisten": 5589,
    "alternate</w>": 5590,
    "bill</w>": 5591,
    "PORTIONS</w>": 5592,
    "debarred</w>": 5593,
    "ownership,</w>": 5594,
    "Agreement\").</w>": 5595,
    "void.</w>": 5596,
    "attorneys</w>": 5597,
    "exercised</w>": 5598,
    "ME": 5599,
    "assumption</w>": 5600,
    "Port": 5601,
    "52</w>": 5602,
    "Antibody</w>": 5603,
    "surviving</w>": 5604,
    "other's</w>": 5605,
    "Alternate</w>": 5606,
    "assert</w>": 5607,
    "Addendum.</w>": 5608,
    "tools</w>": 5609,
    "input</w>": 5610,
    "07/0": 5611,
    "Two</w>": 5612,
    "CONSU": 5613,
    "IX,</w>": 5614,
    "FUSION</w>": 5615,
    "Harpoon": 5616,
    "Cartrid": 5617,
    "Insolven": 5618,
    "training,</w>": 5619,
    "LITY.</w>": 5620,
    "PUN": 5621,
    "BUSINESS</w>": 5622,
    ".com/": 5623,
    "IO": 5624,
    "TV</w>": 5625,
    "mark": 5626,
    "advertisements</w>": 5627,
    "BETWE": 5628,
    "payments,</w>": 5629,
    "circumstance</w>": 5630,
    "Kingdom</w>": 5631,
    "ibers</w>": 5632,
    "S:</w>": 5633,
    "Ge": 5634,
    "4,": 5635,
    "accrue</w>": 5636,
    "week": 5637,
    "Zanotti</w>": 5638,
    "URL</w>": 5639,
    "Promptly</w>": 5640,
    "look</w>": 5641,
    "Property\"</w>": 5642,
    "Firm</w>": 5643,
    "broadcast</w>": 5644,
    "allows</w>": 5645,
    "OP</w>": 5646,
    "S-1),</w>": 5647,
    "Operator's</w>": 5648,
    "Websites</w>": 5649,
    "drko": 5650,
    "NFLA</w>": 5651,
    "Kub": 5652,
    "will:</w>": 5653,
    "Multiple</w>": 5654,
    "sells</w>": 5655,
    "below).</w>": 5656,
    "rupt</w>": 5657,
    "(d)": 5658,
    "safe</w>": 5659,
    "ALLIANCE</w>": 5660,
    "inquiries</w>": 5661,
    "Law;</w>": 5662,
    "reconc": 5663,
    "K.</w>": 5664,
    "Washing": 5665,
    "forty-five</w>": 5666,
    "contemporaneous</w>": 5667,
    "FORCE</w>": 5668,
    "rent,</w>": 5669,
    "bsp": 5670,
    "Franchise.</w>": 5671,
    "authority.</w>": 5672,
    "accompanied</w>": 5673,
    "9.0": 5674,
    "originally</w>": 5675,
    "reviewing</w>": 5676,
    "astern</w>": 5677,
    "(ii),</w>": 5678,
    "a's</w>": 5679,
    "s.com</w>": 5680,
    "sionals</w>": 5681,
    "promoting</w>": 5682,
    "biolog": 5683,
    "payment.</w>": 5684,
    "Territory;</w>": 5685,
    "REQUEST": 5686,
    "Celebr": 5687,
    "CAPSUGEL</w>": 5688,
    "L&": 5689,
    "L&G</w>": 5690,
    "Metavante's</w>": 5691,
    "Broker</w>": 5692,
    "FSL</w>": 5693,
    "global</w>": 5694,
    "Export</w>": 5695,
    "Hardware</w>": 5696,
    "date": 5697,
    "DISPUTE</w>": 5698,
    "consists</w>": 5699,
    "1:</w>": 5700,
    "advertisement</w>": 5701,
    "strategic</w>": 5702,
    "partner,</w>": 5703,
    "US$": 5704,
    "adap": 5705,
    "O.</w>": 5706,
    "INDIRECT,</w>": 5707,
    "EVEN</w>": 5708,
    "exact</w>": 5709,
    "misleading</w>": 5710,
    "signatures</w>": 5711,
    "TIONS.</w>": 5712,
    "ms,</w>": 5713,
    "Territory\"</w>": 5714,
    "Revenue": 5715,
    "ATN</w>": 5716,
    "custod": 5717,
    "suppliers,</w>": 5718,
    "Miltenyi's</w>": 5719,
    "promotions</w>": 5720,
    "REY": 5721,
    "[CERES/IGER]</w>": 5722,
    "ebix</w>": 5723,
    "EIT</w>": 5724,
    "JVC</w>": 5725,
    "07/08/99</w>": 5726,
    "NetGrocer</w>": 5727,
    "Spark": 5728,
    "5/9/": 5729,
    "5/9/2019</w>": 5730,
    "Facsimile": 5731,
    "Facsimile:</w>": 5732,
    "drafting</w>": 5733,
    "advisable</w>": 5734,
    "powers</w>": 5735,
    "4)</w>": 5736,
    "(s)\"</w>": 5737,
    "null</w>": 5738,
    "ACCE": 5739,
    "non-use</w>": 5740,
    "1.9</w>": 5741,
    "Partners</w>": 5742,
    "invention</w>": 5743,
    "6.6</w>": 5744,
    "IA</w>": 5745,
    "modified,</w>": 5746,
    "earned</w>": 5747,
    "authorizations,</w>": 5748,
    "engagement</w>": 5749,
    "88": 5750,
    "ley</w>": 5751,
    "equivalen": 5752,
    "TABLE</w>": 5753,
    "Haz": 5754,
    "([***]%)</w>": 5755,
    "LOST</w>": 5756,
    "attempted</w>": 5757,
    "Omitted</w>": 5758,
    "Contact</w>": 5759,
    "REQUESTED.</w>": 5760,
    "216": 5761,
    "North": 5762,
    "Real</w>": 5763,
    "Theis": 5764,
    "CONSUMER</w>": 5765,
    "Dolphins</w>": 5766,
    "Hydron</w>": 5767,
    "Subparagraph</w>": 5768,
    "ZOGEN": 5769,
    "own,</w>": 5770,
    "offset</w>": 5771,
    "prevented</w>": 5772,
    "Central</w>": 5773,
    "efficient</w>": 5774,
    "royalty-free</w>": 5775,
    "3.8</w>": 5776,
    "ACCEP": 5777,
    "Price": 5778,
    "Suppliers</w>": 5779,
    "ADVER": 5780,
    "ASSIGNMENT</w>": 5781,
    "comprehensive</w>": 5782,
    "funding</w>": 5783,
    "length</w>": 5784,
    "Invention": 5785,
    "self-": 5786,
    "ACKNOWLED": 5787,
    "by": 5788,
    "attention</w>": 5789,
    "non-refund": 5790,
    "owners</w>": 5791,
    "offer,</w>": 5792,
    "Events</w>": 5793,
    "FUR": 5794,
    "savings</w>": 5795,
    "authorization,</w>": 5796,
    "2006</w>": 5797,
    "PARTNER": 5798,
    "beneficially</w>": 5799,
    "securities,</w>": 5800,
    "Endorsement</w>": 5801,
    "herein;</w>": 5802,
    "Definitions.</w>": 5803,
    "Nov": 5804,
    "yland</w>": 5805,
    "observe</w>": 5806,
    "TRANSPOR": 5807,
    "\"F": 5808,
    "04/": 5809,
    "Union</w>": 5810,
    "SPONSORSHIP</w>": 5811,
    "11/8/2019</w>": 5812,
    "IF": 5813,
    "SpinCo": 5814,
    "Garden</w>": 5815,
    "Bizz": 5816,
    "Programming</w>": 5817,
    "JRDC</w>": 5818,
    "TPH-": 5819,
    "eGain</w>": 5820,
    "Sing": 5821,
    "\"Parties": 5822,
    "histor": 5823,
    "\"P": 5824,
    "account,</w>": 5825,
    "voluntarily</w>": 5826,
    "consultants,</w>": 5827,
    "courier,</w>": 5828,
    "occ": 5829,
    "Contents</w>": 5830,
    "(i.e.</w>": 5831,
    "iver,</w>": 5832,
    "East</w>": 5833,
    "Authorization</w>": 5834,
    "PRAC": 5835,
    "10.6</w>": 5836,
    "consequential</w>": 5837,
    "grounds</w>": 5838,
    "4.0": 5839,
    "knowing": 5840,
    "Y:</w>": 5841,
    "(ix)</w>": 5842,
    "(i),</w>": 5843,
    "Maximum</w>": 5844,
    "Drive</w>": 5845,
    "\"Regulatory</w>": 5846,
    "compensate</w>": 5847,
    "4-": 5848,
    "TB": 5849,
    "Trustee,</w>": 5850,
    "SYSTEMS</w>": 5851,
    "mechanis": 5852,
    "healthcare</w>": 5853,
    "suppl": 5854,
    "swit": 5855,
    "Bioamber</w>": 5856,
    "fixtures,</w>": 5857,
    "PROJEC": 5858,
    "ga": 5859,
    "Tade": 5860,
    "XXXXXXXX": 5861,
    "Fox's</w>": 5862,
    "2's</w>": 5863,
    "076": 5864,
    "REYNO": 5865,
    "REYNOL": 5866,
    "REYNOLDS</w>": 5867,
    "ZOGENIX,</w>": 5868,
    "default,</w>": 5869,
    "intentional</w>": 5870,
    "disbursements</w>": 5871,
    "Internal</w>": 5872,
    "2.3.</w>": 5873,
    "discounts</w>": 5874,
    "excused</w>": 5875,
    "non-transferable</w>": 5876,
    "techniques</w>": 5877,
    "involves</w>": 5878,
    "FDA,</w>": 5879,
    "receipt,</w>": 5880,
    "lying</w>": 5881,
    "Control.</w>": 5882,
    "interruption</w>": 5883,
    "Pursu": 5884,
    "Pursuant</w>": 5885,
    "Franchise,</w>": 5886,
    "Guarantee</w>": 5887,
    "capitalized</w>": 5888,
    "MICOA</w>": 5889,
    "consolidation</w>": 5890,
    "annually</w>": 5891,
    "Massach": 5892,
    "Rights\"</w>": 5893,
    "AIMMUNE</w>": 5894,
    "Materials\"</w>": 5895,
    "external</w>": 5896,
    "Elements</w>": 5897,
    "da</w>": 5898,
    "banners</w>": 5899,
    "Calculation</w>": 5900,
    "Results</w>": 5901,
    "PLAY": 5902,
    "SDB": 5903,
    "076C/": 5904,
    "076C/01</w>": 5905,
    "Benchmark</w>": 5906,
    "Majeure": 5907,
    "indebtedness</w>": 5908,
    "intentionally</w>": 5909,
    "facsimile,</w>": 5910,
    "Monday</w>": 5911,
    "izes</w>": 5912,
    "8.6</w>": 5913,
    "Jour": 5914,
    "JE": 5915,
    "Provisions</w>": 5916,
    "firm,</w>": 5917,
    "time;</w>": 5918,
    "suits</w>": 5919,
    "Fund,</w>": 5920,
    "knowingly</w>": 5921,
    "bound,</w>": 5922,
    "o)</w>": 5923,
    "dealing</w>": 5924,
    "dissolution</w>": 5925,
    "JURY</w>": 5926,
    "gin": 5927,
    "attend": 5928,
    "Generic</w>": 5929,
    "verb": 5930,
    "Ono's</w>": 5931,
    "hardware,</w>": 5932,
    "Word</w>": 5933,
    "Machines</w>": 5934,
    "Filed</w>": 5935,
    "COMPLETE</w>": 5936,
    "Originator</w>": 5937,
    "ERB</w>": 5938,
    "Lab</w>": 5939,
    "US-DOCSE": 5940,
    "US-DOCSE216": 5941,
    "US-DOCSE21687": 5942,
    "US-DOCSE216871.19</w>": 5943,
    "right": 5944,
    "Telephone:</w>": 5945,
    "presently</w>": 5946,
    "channels</w>": 5947,
    "Orders.</w>": 5948,
    "INCLUDING,</w>": 5949,
    "MERCHANTABILITY,</w>": 5950,
    "permiss": 5951,
    "Number": 5952,
    "\"):</w>": 5953,
    "underlying</w>": 5954,
    "critical</w>": 5955,
    "leasing</w>": 5956,
    "Lessor</w>": 5957,
    "Pennsylvania</w>": 5958,
    "Jul": 5959,
    "Investors</w>": 5960,
    "Points</w>": 5961,
    "g.</w>": 5962,
    "Samples</w>": 5963,
    "Assistance</w>": 5964,
    "interface</w>": 5965,
    "multiplied</w>": 5966,
    "SITE</w>": 5967,
    "Shopping</w>": 5968,
    "debit</w>": 5969,
    "Integration</w>": 5970,
    "Hotel": 5971,
    "CRA</w>": 5972,
    "PB's</w>": 5973,
    "Customer-": 5974,
    "fiduciary</w>": 5975,
    "given": 5976,
    "7.6</w>": 5977,
    "include:</w>": 5978,
    "feas": 5979,
    "ADVISED</w>": 5980,
    "undertakings</w>": 5981,
    "control\"</w>": 5982,
    "interim</w>": 5983,
    "munotherapy</w>": 5984,
    "twenty-four</w>": 5985,
    "deriv": 5986,
    "L.P.</w>": 5987,
    "57": 5988,
    "emergency</w>": 5989,
    "Terms.</w>": 5990,
    "65</w>": 5991,
    "tox": 5992,
    "Board,</w>": 5993,
    "Attorne": 5994,
    "TRANS": 5995,
    "62</w>": 5996,
    "\"Intellectual</w>": 5997,
    "Officers</w>": 5998,
    "MATERIALS</w>": 5999,
    "Window": 6000,
    "STAND": 6001,
    "Confir": 6002,
    "submitting</w>": 6003,
    "certificates,</w>": 6004,
    "Upstream</w>": 6005,
    "Technology.</w>": 6006,
    "Scien": 6007,
    "Liabilities</w>": 6008,
    "ken-": 6009,
    "IPTION</w>": 6010,
    "TrueLink</w>": 6011,
    "preamble</w>": 6012,
    "VARIETY</w>": 6013,
    "disney</w>": 6014,
    "journal</w>": 6015,
    "V's</w>": 6016,
    "Loaned</w>": 6017,
    "LTD.,</w>": 6018,
    "Chapter</w>": 6019,
    "RESPONSIBI": 6020,
    "appoint": 6021,
    "Print</w>": 6022,
    "check</w>": 6023,
    "matter,</w>": 6024,
    "unanimous</w>": 6025,
    "Authoriz": 6026,
    "identifiable</w>": 6027,
    "President,</w>": 6028,
    "electronically</w>": 6029,
    "promote,</w>": 6030,
    "remedy,</w>": 6031,
    "essen": 6032,
    "AIRSOPURE": 6033,
    "$10": 6034,
    "John</w>": 6035,
    "adopted</w>": 6036,
    "lesser</w>": 6037,
    "causing</w>": 6038,
    "Agreement).</w>": 6039,
    "secondary</w>": 6040,
    "91</w>": 6041,
    "GRAM</w>": 6042,
    "Criteria</w>": 6043,
    "XENCOR": 6044,
    "Trial": 6045,
    "La": 6046,
    "quality,</w>": 6047,
    "PROM": 6048,
    "PROMUL": 6049,
    "PROMULGATED</w>": 6050,
    "eighty</w>": 6051,
    "Hundred</w>": 6052,
    "58</w>": 6053,
    "(INCLUDING</w>": 6054,
    "Hazardous</w>": 6055,
    "custody</w>": 6056,
    "FU": 6057,
    "Countries</w>": 6058,
    "Quarter,</w>": 6059,
    "CARDAX</w>": 6060,
    "ij": 6061,
    "EDGE</w>": 6062,
    "PLAYBO": 6063,
    "Rail</w>": 6064,
    "ULD</w>": 6065,
    "employ": 6066,
    "cies,</w>": 6067,
    "y),</w>": 6068,
    "configuration</w>": 6069,
    "Ful": 6070,
    "EXTENT</w>": 6071,
    "COMPENS": 6072,
    "undisputed</w>": 6073,
    "exempt</w>": 6074,
    "KIN": 6075,
    "basic</w>": 6076,
    "Transferring</w>": 6077,
    "COLLABOR": 6078,
    "desirable</w>": 6079,
    "MAJE": 6080,
    "ference</w>": 6081,
    "Manual,</w>": 6082,
    "8.0": 6083,
    "Plan;</w>": 6084,
    "accountants</w>": 6085,
    "(z)</w>": 6086,
    "institutions</w>": 6087,
    "\";</w>": 6088,
    "Records.</w>": 6089,
    "seeks</w>": 6090,
    "price,</w>": 6091,
    "IES</w>": 6092,
    "Cumulative</w>": 6093,
    "instance</w>": 6094,
    "vendors</w>": 6095,
    "organized,</w>": 6096,
    "2(b)</w>": 6097,
    "drawings,</w>": 6098,
    "managers</w>": 6099,
    "analysis,</w>": 6100,
    "assembly</w>": 6101,
    "impose</w>": 6102,
    "Facilities</w>": 6103,
    "LY": 6104,
    "Reseller's</w>": 6105,
    "JOINT": 6106,
    "Cellco</w>": 6107,
    "nuclear</w>": 6108,
    "successors,</w>": 6109,
    "bond</w>": 6110,
    "Amendments</w>": 6111,
    "\"including": 6112,
    "\"Joint</w>": 6113,
    "4.2.</w>": 6114,
    "meaning": 6115,
    "\"S": 6116,
    "Sunday</w>": 6117,
    "TOTAL</w>": 6118,
    "DELIVERY</w>": 6119,
    "proxy</w>": 6120,
    "irrevocable,</w>": 6121,
    "wrong": 6122,
    "T-": 6123,
    "others,</w>": 6124,
    "forthwith</w>": 6125,
    "usable</w>": 6126,
    "fairly</w>": 6127,
    "COVENANTS</w>": 6128,
    "Cir": 6129,
    "entitled,</w>": 6130,
    "lien,</w>": 6131,
    "authorized,</w>": 6132,
    "less,</w>": 6133,
    "hours.</w>": 6134,
    "quarters</w>": 6135,
    "exercis": 6136,
    "Consultant's</w>": 6137,
    "OWNERSHIP</w>": 6138,
    "ux": 6139,
    "IX</w>": 6140,
    "k-": 6141,
    "destroyed</w>": 6142,
    "Percentage</w>": 6143,
    "achievement</w>": 6144,
    "Beneficiaries.</w>": 6145,
    "15/2019</w>": 6146,
    "o,</w>": 6147,
    "OEM</w>": 6148,
    "entertain": 6149,
    "Park</w>": 6150,
    "incentive</w>": 6151,
    "Preliminary</w>": 6152,
    "SCIENCES</w>": 6153,
    "EXACT</w>": 6154,
    "Du": 6155,
    "VERTICAL": 6156,
    "JOINT...": 6157,
    "JOINT...THE</w>": 6158,
    "CHIRO": 6159,
    "CHIROPRAC": 6160,
    "CHIROPRACTIC</w>": 6161,
    "wp</w>": 6162,
    "hire</w>": 6163,
    "benefits,</w>": 6164,
    "kind,</w>": 6165,
    "amb": 6166,
    "Provision": 6167,
    "940": 6168,
    "voice</w>": 6169,
    "choose</w>": 6170,
    "Anderson": 6171,
    "influence</w>": 6172,
    "safety,</w>": 6173,
    "i.": 6174,
    "defaults</w>": 6175,
    "MERCHANTABILITY</w>": 6176,
    "AMOUNT</w>": 6177,
    "necessary.</w>": 6178,
    "Equipment,</w>": 6179,
    "LS</w>": 6180,
    "circumstances,</w>": 6181,
    "submits</w>": 6182,
    "deficiencies</w>": 6183,
    "installments</w>": 6184,
    "Bank's</w>": 6185,
    "opinion,</w>": 6186,
    "Survival</w>": 6187,
    "Eastern</w>": 6188,
    "organizational</w>": 6189,
    "sions.</w>": 6190,
    "convey": 6191,
    "FC": 6192,
    "2021</w>": 6193,
    "Acknowled": 6194,
    "CB": 6195,
    "etc.)</w>": 6196,
    "\"Term\"</w>": 6197,
    "assignments</w>": 6198,
    "criminal</w>": 6199,
    "solution</w>": 6200,
    "Person.</w>": 6201,
    "Damages</w>": 6202,
    "seq": 6203,
    "creating</w>": 6204,
    "short": 6205,
    "retention</w>": 6206,
    "ACQU": 6207,
    "DY": 6208,
    "Buyer's</w>": 6209,
    "Finance</w>": 6210,
    "BLOO": 6211,
    "BLOOM</w>": 6212,
    "Sor": 6213,
    "driver</w>": 6214,
    "Louis": 6215,
    "M&P</w>": 6216,
    "Neuro": 6217,
    "Dirt</w>": 6218,
    "(II)</w>": 6219,
    "compensation,</w>": 6220,
    "\"O": 6221,
    "certify</w>": 6222,
    "inserted</w>": 6223,
    "SIGN": 6224,
    "AY</w>": 6225,
    "complaints</w>": 6226,
    "guidance</w>": 6227,
    "commissions</w>": 6228,
    "readable</w>": 6229,
    "TORT</w>": 6230,
    "mandatory</w>": 6231,
    "Curren": 6232,
    "run": 6233,
    "COP": 6234,
    "Protocol</w>": 6235,
    "2.9</w>": 6236,
    "\"control\"</w>": 6237,
    "COLLABORATION</w>": 6238,
    "months,</w>": 6239,
    "insure</w>": 6240,
    "ideas,</w>": 6241,
    "3(a)</w>": 6242,
    "advertise</w>": 6243,
    "false</w>": 6244,
    "administered</w>": 6245,
    "business;</w>": 6246,
    "MHCs,</w>": 6247,
    "BAN": 6248,
    "VA</w>": 6249,
    "Geor": 6250,
    "(8)</w>": 6251,
    ".net</w>": 6252,
    "behalf,</w>": 6253,
    "CUSTOMER</w>": 6254,
    "4.4": 6255,
    "mail:</w>": 6256,
    "96</w>": 6257,
    "ken-Word</w>": 6258,
    "Wee": 6259,
    "DESCRIPTION</w>": 6260,
    "specialty</w>": 6261,
    "Ginkgo's</w>": 6262,
    "18-10": 6263,
    "ksga": 6264,
    "SAN</w>": 6265,
    "VN": 6266,
    "amount,</w>": 6267,
    "cause,</w>": 6268,
    "prevail": 6269,
    "confidentiality,</w>": 6270,
    "incidental</w>": 6271,
    "example</w>": 6272,
    "consistently</w>": 6273,
    "profits</w>": 6274,
    "waiver,</w>": 6275,
    "discussion</w>": 6276,
    "embodied</w>": 6277,
    "MAKES</w>": 6278,
    "counterpart</w>": 6279,
    "Drive,</w>": 6280,
    "GOVERNING</w>": 6281,
    "whatsoever.</w>": 6282,
    "endeavor</w>": 6283,
    "AIRSOPURE's</w>": 6284,
    "underwriter": 6285,
    "p.m.</w>": 6286,
    "(f": 6287,
    "furnishing</w>": 6288,
    "(g": 6289,
    "-8": 6290,
    "\"Indemnifying</w>": 6291,
    "Sep-2019</w>": 6292,
    "standards.</w>": 6293,
    "verification</w>": 6294,
    "chemical</w>": 6295,
    "MC": 6296,
    "internet</w>": 6297,
    "WPT</w>": 6298,
    "Five</w>": 6299,
    "(9)</w>": 6300,
    "improvement</w>": 6301,
    "COVER": 6302,
    "MFW</w>": 6303,
    "SKU</w>": 6304,
    "Vehicle</w>": 6305,
    "Hydrocarbon</w>": 6306,
    "unksga": 6307,
    "Achaogen,</w>": 6308,
    "GIE</w>": 6309,
    "Artists</w>": 6310,
    "Cisco's</w>": 6311,
    "6/3/2019</w>": 6312,
    "ordinance,</w>": 6313,
    "continuous</w>": 6314,
    "awarded</w>": 6315,
    "2000": 6316,
    "67": 6317,
    "Warranty.</w>": 6318,
    "Thereafter,</w>": 6319,
    "conclus": 6320,
    "person.</w>": 6321,
    "matters,</w>": 6322,
    "obtain,</w>": 6323,
    "handling,</w>": 6324,
    "BETWEEN</w>": 6325,
    "TRADEMARK": 6326,
    "confusing": 6327,
    "confusingly</w>": 6328,
    "FAR</w>": 6329,
    "pledge</w>": 6330,
    "creditors;</w>": 6331,
    "LEGAL</w>": 6332,
    "address,</w>": 6333,
    "exploitation</w>": 6334,
    "Copyrights</w>": 6335,
    "Entities,</w>": 6336,
    "TRIAL</w>": 6337,
    "left</w>": 6338,
    "weekly</w>": 6339,
    "Organiz": 6340,
    "submissions</w>": 6341,
    "Indemnitor</w>": 6342,
    "(i).</w>": 6343,
    "Spoken-Word</w>": 6344,
    "COVERAGE</w>": 6345,
    "ching</w>": 6346,
    "TE": 6347,
    "VP</w>": 6348,
    "18-10248": 6349,
    "632-1</w>": 6350,
    "04/18/": 6351,
    "04/18/18</w>": 6352,
    "Appointment</w>": 6353,
    "Plus</w>": 6354,
    "Tools</w>": 6355,
    "Correspon": 6356,
    "Confidence</w>": 6357,
    "8/22/2018</w>": 6358,
    "HERTZ": 6359,
    "MediaNet</w>": 6360,
    "Annuity</w>": 6361,
    "10%</w>": 6362,
    "themsel": 6363,
    "wealth</w>": 6364,
    "Customers.</w>": 6365,
    "California,</w>": 6366,
    "s);</w>": 6367,
    "Type</w>": 6368,
    "ot": 6369,
    "GOLF</w>": 6370,
    "TX</w>": 6371,
    "file,</w>": 6372,
    "acknowledg": 6373,
    "PURPOSE.</w>": 6374,
    "simultane": 6375,
    "letter,</w>": 6376,
    "categories</w>": 6377,
    "deliveries</w>": 6378,
    "safegu": 6379,
    "Issuer-": 6380,
    "Issuer-Represented</w>": 6381,
    "supervision</w>": 6382,
    "fil": 6383,
    "OTHERWISE,</w>": 6384,
    "Clauses</w>": 6385,
    "TBD</w>": 6386,
    "Found": 6387,
    "beneficiary</w>": 6388,
    "Tariff</w>": 6389,
    "Authority\"</w>": 6390,
    "tribunal</w>": 6391,
    "u,</w>": 6392,
    "Mur": 6393,
    "user's</w>": 6394,
    "analytical</w>": 6395,
    "describe</w>": 6396,
    "manufacturers</w>": 6397,
    "JDRC</w>": 6398,
    "4.7</w>": 6399,
    "things</w>": 6400,
    "non-disclosure</w>": 6401,
    "Implementation</w>": 6402,
    "Standards.</w>": 6403,
    "cu": 6404,
    "impressions</w>": 6405,
    "DRS/": 6406,
    "night</w>": 6407,
    "VGSL</w>": 6408,
    "Install</w>": 6409,
    "12:00</w>": 6410,
    "Nikko</w>": 6411,
    "JANA</w>": 6412,
    "Customer-Supplied</w>": 6413,
    "judgments,</w>": 6414,
    "penalties,</w>": 6415,
    "\"Los": 6416,
    "98": 6417,
    "account.</w>": 6418,
    "BUT</w>": 6419,
    "property.</w>": 6420,
    "Convention</w>": 6421,
    "wide</w>": 6422,
    "jo": 6423,
    "da": 6424,
    "surve": 6425,
    "SUPPORT</w>": 6426,
    "COMPLIANCE</w>": 6427,
    "EU</w>": 6428,
    "$5": 6429,
    "encumbrances</w>": 6430,
    "creditors'</w>": 6431,
    "Partners,</w>": 6432,
    "Vide": 6433,
    "Endorser": 6434,
    "password</w>": 6435,
    "STANDAR": 6436,
    "CONTRACTOR": 6437,
    "establishment</w>": 6438,
    "Over": 6439,
    "ce;</w>": 6440,
    "Bin": 6441,
    "PM": 6442,
    "minus</w>": 6443,
    "building</w>": 6444,
    "invoice,</w>": 6445,
    "John": 6446,
    "E/": 6447,
    "Definition</w>": 6448,
    "Utility</w>": 6449,
    "Express</w>": 6450,
    "trustee,</w>": 6451,
    "7:00</w>": 6452,
    "Esq.</w>": 6453,
    "Analy": 6454,
    "Celebrity</w>": 6455,
    "supported</w>": 6456,
    "Customiz": 6457,
    "Tadeo</w>": 6458,
    "Sub-Advisor</w>": 6459,
    "PLAYBOY</w>": 6460,
    "Sicap</w>": 6461,
    "components,</w>": 6462,
    "rightfully</w>": 6463,
    "AK": 6464,
    "reasonable,</w>": 6465,
    "ICT</w>": 6466,
    "Guidelines</w>": 6467,
    "fifth</w>": 6468,
    "classified</w>": 6469,
    "decides</w>": 6470,
    "D.": 6471,
    "family</w>": 6472,
    "ADVERTISING</w>": 6473,
    "non-public</w>": 6474,
    "efficacy</w>": 6475,
    "enforce": 6476,
    "ACCO": 6477,
    "Oh": 6478,
    "$0.": 6479,
    "billed</w>": 6480,
    "expenditures</w>": 6481,
    "dress,</w>": 6482,
    "assignable</w>": 6483,
    "9,": 6484,
    "EP</w>": 6485,
    "59</w>": 6486,
    "minimum,</w>": 6487,
    "Illinois</w>": 6488,
    "UK</w>": 6489,
    "withhol": 6490,
    "Content.</w>": 6491,
    "Trainers</w>": 6492,
    "Subcontractor's</w>": 6493,
    "NDA</w>": 6494,
    "City,</w>": 6495,
    "Event,</w>": 6496,
    "HT": 6497,
    "Well": 6498,
    "2019)</w>": 6499,
    "handle</w>": 6500,
    "Jer": 6501,
    "DRS/A</w>": 6502,
    "3/21/2018</w>": 6503,
    "12/2018</w>": 6504,
    "S2K</w>": 6505,
    "Music</w>": 6506,
    "Valean": 6507,
    "Excite@Home": 6508,
    "Immunotherapy</w>": 6509,
    "JG": 6510,
    "Unit-Holders</w>": 6511,
    "Varde</w>": 6512,
    "Endorsed</w>": 6513,
    "10-Q/A,</w>": 6514,
    "COFS</w>": 6515,
    "Isra": 6516,
    "patentable</w>": 6517,
    "receipt.</w>": 6518,
    "nel.</w>": 6519,
    "delivery.</w>": 6520,
    "insofar</w>": 6521,
    "CONSEQUENTI": 6522,
    "CONSEQUENTIAL,</w>": 6523,
    "onl": 6524,
    "print</w>": 6525,
    "p)</w>": 6526,
    "ENDOR": 6527,
    "F,</w>": 6528,
    "enjo": 6529,
    "FAI": 6530,
    "milestones</w>": 6531,
    "Human</w>": 6532,
    "register": 6533,
    "TION,</w>": 6534,
    "Airspan's</w>": 6535,
    "Consulting</w>": 6536,
    "ORDER": 6537,
    "falls</w>": 6538,
    "TRAIN": 6539,
    "thereon</w>": 6540,
    "dealer": 6541,
    "purchasers</w>": 6542,
    "threatened,</w>": 6543,
    "lapse</w>": 6544,
    "STRUC": 6545,
    "tort</w>": 6546,
    "exercisable</w>": 6547,
    "BU": 6548,
    "100%</w>": 6549,
    "ability,</w>": 6550,
    "92</w>": 6551,
    "72</w>": 6552,
    "failures</w>": 6553,
    "$1,": 6554,
    "Rules.</w>": 6555,
    "\"Territory\"</w>": 6556,
    "End-": 6557,
    "')</w>": 6558,
    "Patent,</w>": 6559,
    "nov": 6560,
    "transferring</w>": 6561,
    "BACK": 6562,
    "Syr": 6563,
    "abide</w>": 6564,
    "-time</w>": 6565,
    "18-10248-</w>": 6566,
    "airlines</w>": 6567,
    "MOBILE</w>": 6568,
    "DSP</w>": 6569,
    "Og": 6570,
    "MLX</w>": 6571,
    "Kubient</w>": 6572,
    "MKO": 6573,
    "NeuroBo</w>": 6574,
    "EKR": 6575,
    "Qualigen's</w>": 6576,
    "WOULD</w>": 6577,
    "itself,</w>": 6578,
    "enforcing</w>": 6579,
    "recipien": 6580,
    "monwealth</w>": 6581,
    "Division</w>": 6582,
    "geographic</w>": 6583,
    "th,</w>": 6584,
    "Installation</w>": 6585,
    "if:</w>": 6586,
    "3:</w>": 6587,
    "University</w>": 6588,
    "decided</w>": 6589,
    "government,</w>": 6590,
    "security,</w>": 6591,
    "n,</w>": 6592,
    "years.</w>": 6593,
    "6.7</w>": 6594,
    "repair,</w>": 6595,
    "on-site</w>": 6596,
    "Application": 6597,
    "encumbrance</w>": 6598,
    "deficiency</w>": 6599,
    "2(a)": 6600,
    "Group's</w>": 6601,
    "sooner</w>": 6602,
    "principles.</w>": 6603,
    "o-": 6604,
    "insurer": 6605,
    "iamond</w>": 6606,
    "hardw": 6607,
    "Billing</w>": 6608,
    "INV": 6609,
    "Delivery.</w>": 6610,
    "complaint</w>": 6611,
    "Kon": 6612,
    "disease</w>": 6613,
    "VAT</w>": 6614,
    "\"Person\"</w>": 6615,
    "gorith": 6616,
    "Commencing</w>": 6617,
    "Binimetin": 6618,
    "Educational</w>": 6619,
    "authen": 6620,
    "THEOR": 6621,
    "Trig": 6622,
    "Theismann</w>": 6623,
    "Changepoint's</w>": 6624,
    "CARDLY": 6625,
    "CARDLYTICS,</w>": 6626,
    "1/12/2018</w>": 6627,
    "drkoop.com</w>": 6628,
    "MV": 6629,
    "midnight</w>": 6630,
    "ENTERPRISES</w>": 6631,
    "Merchants</w>": 6632,
    "VerticalNet's</w>": 6633,
    "Monsanto": 6634,
    "ABW</w>": 6635,
    "TPC</w>": 6636,
    "W2": 6637,
    "Exhibit,</w>": 6638,
    "irrevocable</w>": 6639,
    "Provider,</w>": 6640,
    "financial,</w>": 6641,
    "situation</w>": 6642,
    "\"including\"</w>": 6643,
    "Commonwealth</w>": 6644,
    "Its:</w>": 6645,
    "towards</w>": 6646,
    "acciden": 6647,
    "Basic</w>": 6648,
    "8-": 6649,
    "Study,</w>": 6650,
    "Official</w>": 6651,
    "exceptions</w>": 6652,
    "IP\"</w>": 6653,
    "embar": 6654,
    "strong</w>": 6655,
    "promptly,</w>": 6656,
    "9.6</w>": 6657,
    "covenant,</w>": 6658,
    "PURCHASE</w>": 6659,
    "underpayment</w>": 6660,
    "encourage</w>": 6661,
    "experienced</w>": 6662,
    "17-": 6663,
    "grant,</w>": 6664,
    "annu": 6665,
    "reference.</w>": 6666,
    "Off": 6667,
    "subdivision</w>": 6668,
    "Je": 6669,
    "vehicles</w>": 6670,
    "Energ": 6671,
    "au</w>": 6672,
    "CFR</w>": 6673,
    "obtained,</w>": 6674,
    "Filings</w>": 6675,
    "iss": 6676,
    "GROUND</w>": 6677,
    "frequently</w>": 6678,
    "Pharmaceutical</w>": 6679,
    "Encorafen": 6680,
    "Responsibilities.</w>": 6681,
    "WHEREAS</w>": 6682,
    "ACQUISITION</w>": 6683,
    "Manuals</w>": 6684,
    "-related</w>": 6685,
    "High</w>": 6686,
    "ND": 6687,
    "messages</w>": 6688,
    "CAPIT": 6689,
    "Efficiency</w>": 6690,
    "PRC</w>": 6691,
    "VET</w>": 6692,
    "vTIP": 6693,
    "vTIP2010</w>": 6694,
    "Terminated</w>": 6695,
    "Blackwell": 6696,
    "Blackwell/M": 6697,
    "Blackwell/Munksga": 6698,
    "Ax": 6699,
    "Microgenic": 6700,
    "Lawn</w>": 6701,
    "UTK</w>": 6702,
    "t\").</w>": 6703,
    "2:</w>": 6704,
    "Counterparts</w>": 6705,
    "4_": 6706,
    "anywhere</w>": 6707,
    "non-compliance</w>": 6708,
    "PUNITIVE</w>": 6709,
    "default.</w>": 6710,
    "></w>": 6711,
    ".]</w>": 6712,
    "2005</w>": 6713,
    "extent,</w>": 6714,
    "manuals</w>": 6715,
    "Inventor": 6716,
    "Education</w>": 6717,
    "advertisement,</w>": 6718,
    "S;</w>": 6719,
    "banks</w>": 6720,
    "Assist</w>": 6721,
    "law;</w>": 6722,
    "Wide</w>": 6723,
    "CONTAINED</w>": 6724,
    "thereto;</w>": 6725,
    "8,": 6726,
    "body,</w>": 6727,
    "Richard</w>": 6728,
    "\"Applicable</w>": 6729,
    "auditors</w>": 6730,
    "subsections</w>": 6731,
    ")-": 6732,
    "Buil": 6733,
    "nd</w>": 6734,
    "premium</w>": 6735,
    "Field,</w>": 6736,
    "Know-How\"</w>": 6737,
    "Mar-2019</w>": 6738,
    "Filing</w>": 6739,
    "English": 6740,
    "We": 6741,
    "continuation</w>": 6742,
    "Massachusetts</w>": 6743,
    "discoveries,</w>": 6744,
    "relief,</w>": 6745,
    "phrase</w>": 6746,
    "Anti-": 6747,
    "Kore": 6748,
    "RESOLUTION</w>": 6749,
    "Ltd.,</w>": 6750,
    "URL": 6751,
    "Chemical</w>": 6752,
    "B-2</w>": 6753,
    "Adjusted</w>": 6754,
    "Corio's</w>": 6755,
    "CYTO": 6756,
    "CYTODY": 6757,
    "CYTODYN</w>": 6758,
    "Hal": 6759,
    "Corresponden": 6760,
    "INTERSECT</w>": 6761,
    "Appearance</w>": 6762,
    "LM": 6763,
    "05/": 6764,
    "Plazomicin</w>": 6765,
    "Dong-A</w>": 6766,
    "SDBF</w>": 6767,
    "perfect</w>": 6768,
    "waivers</w>": 6769,
    "recognize</w>": 6770,
    "izing</w>": 6771,
    "months.</w>": 6772,
    "event.</w>": 6773,
    "against,</w>": 6774,
    "parameters</w>": 6775,
    "British</w>": 6776,
    "Center,</w>": 6777,
    "Blv": 6778,
    "Funding</w>": 6779,
    "y-owned</w>": 6780,
    "8.7</w>": 6781,
    "Until</w>": 6782,
    "etc.": 6783,
    "essential</w>": 6784,
    "conditions:</w>": 6785,
    "franchises</w>": 6786,
    "guaranteed</w>": 6787,
    "Offering.</w>": 6788,
    "attorneys,</w>": 6789,
    "misrepresentation</w>": 6790,
    "Securities,</w>": 6791,
    "Subsidiaries,</w>": 6792,
    "serial</w>": 6793,
    "instances</w>": 6794,
    "Agreement]</w>": 6795,
    "07": 6796,
    "COMMUN": 6797,
    "Payment,</w>": 6798,
    "FINR": 6799,
    "appeal</w>": 6800,
    "A\")</w>": 6801,
    "County</w>": 6802,
    "Day\"</w>": 6803,
    "\"Net</w>": 6804,
    "Covenants.</w>": 6805,
    "365": 6806,
    "afforded</w>": 6807,
    "Fee\"</w>": 6808,
    "tribun": 6809,
    "journ": 6810,
    "LRUs</w>": 6811,
    "SCIENCES,</w>": 6812,
    "Jerse": 6813,
    "e-business</w>": 6814,
    "1/9/": 6815,
    "Hill</w>": 6816,
    "COM": 6817,
    "Purchased</w>": 6818,
    "Facility,</w>": 6819,
    "Bizzingo</w>": 6820,
    "Omissions</w>": 6821,
    "Theatres</w>": 6822,
    "Theatre</w>": 6823,
    "Axiometr": 6824,
    "WMB": 6825,
    "MMMW</w>": 6826,
    "terminate,</w>": 6827,
    "\"Receiving</w>": 6828,
    "pledge,</w>": 6829,
    "eighteen</w>": 6830,
    "6.2.</w>": 6831,
    "licensors</w>": 6832,
    "Indemnity</w>": 6833,
    "permissible</w>": 6834,
    "Packaging</w>": 6835,
    "events,</w>": 6836,
    "5.7</w>": 6837,
    "Institute</w>": 6838,
    "responding</w>": 6839,
    "customer,</w>": 6840,
    "Nevada</w>": 6841,
    "attachments</w>": 6842,
    "FRANCHISEE</w>": 6843,
    "Retention</w>": 6844,
    "terminated,</w>": 6845,
    "q)</w>": 6846,
    "Portfolio</w>": 6847,
    "Law\"</w>": 6848,
    "investors</w>": 6849,
    "reason.</w>": 6850,
    "convertible</w>": 6851,
    "territories</w>": 6852,
    "regarded</w>": 6853,
    "normally</w>": 6854,
    "Field.</w>": 6855,
    "Term\"</w>": 6856,
    "oodfloor": 6857,
    "94</w>": 6858,
    "\"Agreement\"</w>": 6859,
    "\"A\"</w>": 6860,
    "sage</w>": 6861,
    "Rates</w>": 6862,
    "FERC</w>": 6863,
    "belonging</w>": 6864,
    "INTERNATIONAL</w>": 6865,
    "commences</w>": 6866,
    "endeavour": 6867,
    "endeavours</w>": 6868,
    "England</w>": 6869,
    "C;</w>": 6870,
    "legislation</w>": 6871,
    "York.</w>": 6872,
    "DIGITAL</w>": 6873,
    "AstraZ": 6874,
    "AstraZeneca</w>": 6875,
    "lord</w>": 6876,
    "Of</w>": 6877,
    "hazardous</w>": 6878,
    "(5%)</w>": 6879,
    "OMISSIONS</w>": 6880,
    "Windows</w>": 6881,
    "Assay,</w>": 6882,
    "possibility</w>": 6883,
    "Clients</w>": 6884,
    "Holding": 6885,
    "Continental</w>": 6886,
    "1/9/2020</w>": 6887,
    "music</w>": 6888,
    "PORTIONS.</w>": 6889,
    "Account,</w>": 6890,
    "Harpoon's</w>": 6891,
    "Erchonia</w>": 6892,
    "Excite@Home's</w>": 6893,
    "IBM/MSL</w>": 6894,
    "ANA,</w>": 6895,
    "5/2017</w>": 6896,
    "Buy-Out</w>": 6897,
    "RCP</w>": 6898,
    "JAC</w>": 6899,
    "conceived</w>": 6900,
    "Provider's</w>": 6901,
    "paid.</w>": 6902,
    "receipts</w>": 6903,
    "Capitalized</w>": 6904,
    "2.4.</w>": 6905,
    "regional</w>": 6906,
    "5.2.</w>": 6907,
    "unloading</w>": 6908,
    "non-transferable,</w>": 6909,
    "INFRINGEMENT</w>": 6910,
    "signs,</w>": 6911,
    "personally,</w>": 6912,
    "QUALITY</w>": 6913,
    "leading</w>": 6914,
    "self</w>": 6915,
    "EXECUTION</w>": 6916,
    "recognizes</w>": 6917,
    "results,</w>": 6918,
    "settlement,</w>": 6919,
    "y/": 6920,
    "(T": 6921,
    "optim": 6922,
    "X.</w>": 6923,
    "NOTWITHSTANDING</w>": 6924,
    "efficien": 6925,
    "\"The</w>": 6926,
    "recognition</w>": 6927,
    "unfair</w>": 6928,
    "indenture,</w>": 6929,
    "membership</w>": 6930,
    "pertinent</w>": 6931,
    "COMPANY,</w>": 6932,
    "acquisition,</w>": 6933,
    "\"Agreement\"),</w>": 6934,
    "Patents\"</w>": 6935,
    "variation</w>": 6936,
    "Incentive</w>": 6937,
    "calls</w>": 6938,
    "CING</w>": 6939,
    "Representations,</w>": 6940,
    "effectuate</w>": 6941,
    "TRANSPORTATION</w>": 6942,
    "Year\"</w>": 6943,
    "scale</w>": 6944,
    "\"[***]\"</w>": 6945,
    "ball</w>": 6946,
    "Reimbur": 6947,
    "Mobility</w>": 6948,
    "2.0</w>": 6949,
    "Notice\")</w>": 6950,
    "assistance,</w>": 6951,
    "customized</w>": 6952,
    "Inten": 6953,
    "COMMERCIAL</w>": 6954,
    "head": 6955,
    "Exam": 6956,
    "Improvement</w>": 6957,
    "Insolvency</w>": 6958,
    "box": 6959,
    "MarketSite": 6960,
    "MarketSite.net</w>": 6961,
    "Card": 6962,
    "1-A,</w>": 6963,
    "COHER": 6964,
    "COHERUS</w>": 6965,
    "BIOSCIENCES,</w>": 6966,
    "2/27/": 6967,
    "Advertising": 6968,
    "DOVA</w>": 6969,
    "Louisian": 6970,
    "Beneficial</w>": 6971,
    "Logan's</w>": 6972,
    "Duval</w>": 6973,
    "Variable</w>": 6974,
    "dB": 6975,
    "PARATEK</w>": 6976,
    "5/5/2017</w>": 6977,
    "Vericel": 6978,
    "LEO</w>": 6979,
    "else</w>": 6980,
    "-to-": 6981,
    "refuse</w>": 6982,
    "3_": 6983,
    "ENDORSEMENT</w>": 6984,
    "FAIL": 6985,
    "eliminate</w>": 6986,
    "Laws;</w>": 6987,
    "penalty</w>": 6988,
    "leases</w>": 6989,
    "9.7</w>": 6990,
    "enhance</w>": 6991,
    "accruing</w>": 6992,
    "earn": 6993,
    "OTHERWISE</w>": 6994,
    "hereof;</w>": 6995,
    "approximately</w>": 6996,
    "Amendment.</w>": 6997,
    "Diamond</w>": 6998,
    "Zone</w>": 6999,
    "06</w>": 7000,
    "Indenture.</w>": 7001,
    "records.</w>": 7002,
    "Hong</w>": 7003,
    "customer's</w>": 7004,
    "withdrawn</w>": 7005,
    "disagreement</w>": 7006,
    "algorith": 7007,
    "Before</w>": 7008,
    "64</w>": 7009,
    "Disclaimer</w>": 7010,
    "ordinances,</w>": 7011,
    "PW": 7012,
    "INSTALLATION</w>": 7013,
    "oil</w>": 7014,
    "DT": 7015,
    "investments</w>": 7016,
    "furniture,</w>": 7017,
    "Hours</w>": 7018,
    "2/27/2020</w>": 7019,
    "Euro": 7020,
    "LOU": 7021,
    "mg</w>": 7022,
    "Excite's</w>": 7023,
    "Halper": 7024,
    "Halpern</w>": 7025,
    "Sorrent,</w>": 7026,
    "3/19/": 7027,
    "KALLO</w>": 7028,
    "Monsanto's</w>": 7029,
    "Sparkling</w>": 7030,
    "Non-Complying</w>": 7031,
    "Buy-Sell</w>": 7032,
    "Sutro's</w>": 7033,
    "MediWoun": 7034,
    "WCC</w>": 7035,
    "subcontractor": 7036,
    "Date\").</w>": 7037,
    "him</w>": 7038,
    "LIABILITY.</w>": 7039,
    "ize,</w>": 7040,
    "REQUIRED</w>": 7041,
    "ABILITY</w>": 7042,
    "prevention</w>": 7043,
    "Physician</w>": 7044,
    "advantage</w>": 7045,
    "qualif": 7046,
    "MANUFACTUR": 7047,
    "Nas": 7048,
    "ACTU": 7049,
    "confidential.</w>": 7050,
    "waiving</w>": 7051,
    "firm": 7052,
    "FINANC": 7053,
    "(o)</w>": 7054,
    "2006,</w>": 7055,
    "non-binding</w>": 7056,
    "premi": 7057,
    "-6": 7058,
    "ARMSTRON": 7059,
    "Arm": 7060,
    "integrity</w>": 7061,
    "Cooperation.</w>": 7062,
    "fitness</w>": 7063,
    "CN</w>": 7064,
    "Defaulting</w>": 7065,
    "Maryland</w>": 7066,
    "UTSOURCING</w>": 7067,
    "R.": 7068,
    "20,</w>": 7069,
    "interrup": 7070,
    "Resolution.</w>": 7071,
    "break": 7072,
    "Approvals.</w>": 7073,
    "apply:</w>": 7074,
    "ifiable</w>": 7075,
    "CONFIDENTIALITY": 7076,
    "Event\"</w>": 7077,
    "cGMP</w>": 7078,
    "HOSP": 7079,
    "HOSPIT": 7080,
    "2.4": 7081,
    "years,</w>": 7082,
    "LRU</w>": 7083,
    "substituted</w>": 7084,
    "Tur": 7085,
    "confidence,</w>": 7086,
    "Workflows</w>": 7087,
    "SRP</w>": 7088,
    "2.3,</w>": 7089,
    "Trust,</w>": 7090,
    "bw": 7091,
    "Restaurant.</w>": 7092,
    "M's</w>": 7093,
    "NAL</w>": 7094,
    "------------</w>": 7095,
    "Cherry</w>": 7096,
    "COOL</w>": 7097,
    "Hydrocarbons</w>": 7098,
    "WebCraw": 7099,
    "WebCrawler</w>": 7100,
    "PLZ</w>": 7101,
    "GLU</w>": 7102,
    "3/19/2007</w>": 7103,
    "AbbVie": 7104,
    "([*]": 7105,
    "Sab": 7106,
    "MedIm": 7107,
    "PlanetCAD</w>": 7108,
    "Inhibitor": 7109,
    "RITTER</w>": 7110,
    "3/13/2020</w>": 7111,
    "Garman</w>": 7112,
    "SOUPMAN": 7113,
    "SOUPMAN,</w>": 7114,
    "8/14/": 7115,
    "8/14/2015</w>": 7116,
    "Extract</w>": 7117,
    "Zogenix's</w>": 7118,
    "Defense</w>": 7119,
    "Support.</w>": 7120,
    "als.</w>": 7121,
    "G)</w>": 7122,
    "Amendments.</w>": 7123,
    "name": 7124,
    "Copyright</w>": 7125,
    "z</w>": 7126,
    "fo": 7127,
    "RELATIONSHIP</w>": 7128,
    "(together</w>": 7129,
    "mune's</w>": 7130,
    "Significant</w>": 7131,
    "developments</w>": 7132,
    "EFFEC": 7133,
    "News</w>": 7134,
    "NY": 7135,
    "looking</w>": 7136,
    "Qw": 7137,
    "Qwik-F": 7138,
    "Qwik-Fix</w>": 7139,
    "remedy.</w>": 7140,
    "---------------------</w>": 7141,
    "archival</w>": 7142,
    "suffer</w>": 7143,
    "profits,</w>": 7144,
    "REVENUE</w>": 7145,
    ",000.00</w>": 7146,
    "ancillary</w>": 7147,
    "terms;</w>": 7148,
    "bulk</w>": 7149,
    "convicted</w>": 7150,
    "Ohio</w>": 7151,
    "counsel.</w>": 7152,
    "Knowledge</w>": 7153,
    "commission,</w>": 7154,
    "26-": 7155,
    "05</w>": 7156,
    "factors</w>": 7157,
    "background</w>": 7158,
    "\"include": 7159,
    "FLOOR": 7160,
    "ARMSTRONG</w>": 7161,
    "Jun": 7162,
    "App.</w>": 7163,
    "instruments,</w>": 7164,
    "insur": 7165,
    "At": 7166,
    "Files</w>": 7167,
    "Western</w>": 7168,
    "Ingredien": 7169,
    "al)</w>": 7170,
    "country.</w>": 7171,
    "93</w>": 7172,
    "formulae,</w>": 7173,
    "BACKGROUND</w>": 7174,
    "resolving</w>": 7175,
    "HOSPITALITY</w>": 7176,
    "poly": 7177,
    "award,</w>": 7178,
    "Expert</w>": 7179,
    "Broad": 7180,
    "Concer": 7181,
    "E-mail:</w>": 7182,
    "schedule,</w>": 7183,
    "Intentionally</w>": 7184,
    "VALV": 7185,
    "HY": 7186,
    "ps</w>": 7187,
    "harmful</w>": 7188,
    "File</w>": 7189,
    "PNC</w>": 7190,
    "Counterparty</w>": 7191,
    "Customers,</w>": 7192,
    "RESOURCES</w>": 7193,
    "Margin</w>": 7194,
    "Professionals</w>": 7195,
    "JD": 7196,
    "Blackwell/Munksgaard</w>": 7197,
    "HERTZ)</w>": 7198,
    "VERTICALNET</w>": 7199,
    "WYZZ's</w>": 7200,
    "Nexstar": 7201,
    "SFJ's</w>": 7202,
    "2/20/": 7203,
    "RevMed's</w>": 7204,
    "Xplore</w>": 7205,
    "*Confidential</w>": 7206,
    "VNB": 7207,
    "Servicer's</w>": 7208,
    "XLI</w>": 7209,
    "historical</w>": 7210,
    "PDF</w>": 7211,
    "Purchases</w>": 7212,
    "region": 7213,
    "address:</w>": 7214,
    "4.3.</w>": 7215,
    "y).</w>": 7216,
    "Claims.</w>": 7217,
    "7.2.</w>": 7218,
    "xx": 7219,
    "FAILURE</w>": 7220,
    "James</w>": 7221,
    "43": 7222,
    "Nasda": 7223,
    "important</w>": 7224,
    "circumstances.</w>": 7225,
    "Phone:</w>": 7226,
    "engineer,</w>": 7227,
    "deal</w>": 7228,
    "SALES</w>": 7229,
    "concepts,</w>": 7230,
    "non-performance</w>": 7231,
    "LIABILITY,</w>": 7232,
    "releases,</w>": 7233,
    "Manual.</w>": 7234,
    "Fund.</w>": 7235,
    "miles</w>": 7236,
    "EXPEN": 7237,
    "loans</w>": 7238,
    "subparagraph</w>": 7239,
    "2;</w>": 7240,
    "properties,</w>": 7241,
    "consequences</w>": 7242,
    "opinions</w>": 7243,
    "Benefits</w>": 7244,
    "O'": 7245,
    "Offerings</w>": 7246,
    "instrumentality</w>": 7247,
    "surface</w>": 7248,
    "instrument,</w>": 7249,
    "20-": 7250,
    "68</w>": 7251,
    "Levels</w>": 7252,
    "Minnesota</w>": 7253,
    "Contractors</w>": 7254,
    "download</w>": 7255,
    "create,</w>": 7256,
    "mix": 7257,
    "department,</w>": 7258,
    "consequence</w>": 7259,
    "Enforcement</w>": 7260,
    "Relief.</w>": 7261,
    "Diag": 7262,
    "Enforcing</w>": 7263,
    "be:</w>": 7264,
    "disruption</w>": 7265,
    "61</w>": 7266,
    "Furn": 7267,
    "Plan\"</w>": 7268,
    "Event.</w>": 7269,
    "5.8</w>": 7270,
    "Biotec-Bellicum</w>": 7271,
    "Headstart</w>": 7272,
    "ONLINE</w>": 7273,
    "passwor": 7274,
    "Jersey</w>": 7275,
    "Agents,</w>": 7276,
    "buy</w>": 7277,
    "plants</w>": 7278,
    "Discloser": 7279,
    "Franchisor": 7280,
    "JMC</w>": 7281,
    "GPA": 7282,
    "GPAQ</w>": 7283,
    "matching</w>": 7284,
    "[*]=": 7285,
    "[*]=CERTAIN</w>": 7286,
    "[**]": 7287,
    "2/20/2009</w>": 7288,
    "marine</w>": 7289,
    "relationships</w>": 7290,
    "incurs</w>": 7291,
    "faith.</w>": 7292,
    "permitting</w>": 7293,
    "Pac": 7294,
    "4.8</w>": 7295,
    "Fix": 7296,
    "TO,</w>": 7297,
    "6.3.</w>": 7298,
    "strikes,</w>": 7299,
    "organizations</w>": 7300,
    "fields</w>": 7301,
    "inste": 7302,
    "above;</w>": 7303,
    "PERIO": 7304,
    "Responsibilities</w>": 7305,
    "HEREUNDER</w>": 7306,
    "sufficiently</w>": 7307,
    "inventory,</w>": 7308,
    "simultaneously</w>": 7309,
    "8.2.</w>": 7310,
    "Paragraphs</w>": 7311,
    "disaster": 7312,
    "broker-": 7313,
    "preventing</w>": 7314,
    "moratorium</w>": 7315,
    "Books</w>": 7316,
    "/a</w>": 7317,
    "(E)</w>": 7318,
    "KI's</w>": 7319,
    "PIR": 7320,
    "continuations,</w>": 7321,
    "(h": 7322,
    "ang": 7323,
    "unlawful</w>": 7324,
    "special,</w>": 7325,
    "criter": 7326,
    "franchise,</w>": 7327,
    "analyz": 7328,
    "thereof),</w>": 7329,
    "pricing,</w>": 7330,
    "Authorities,</w>": 7331,
    "ople's</w>": 7332,
    "Antares'</w>": 7333,
    "Decision-": 7334,
    "converted</w>": 7335,
    "69</w>": 7336,
    "Rating</w>": 7337,
    "beneficiar": 7338,
    "LIQU": 7339,
    "reveals</w>": 7340,
    "PJ": 7341,
    "PE": 7342,
    "fourteen</w>": 7343,
    "San": 7344,
    "Guaranteed</w>": 7345,
    "Adjust": 7346,
    "capabilities</w>": 7347,
    "CAPITAL</w>": 7348,
    "PURCHASER</w>": 7349,
    "Jav": 7350,
    "growth</w>": 7351,
    "measurement</w>": 7352,
    "HEAD</w>": 7353,
    "Bioeq": 7354,
    "11/8/2018</w>": 7355,
    "Dova's</w>": 7356,
    "UTC</w>": 7357,
    "Converg": 7358,
    "Certificate": 7359,
    "SRAM</w>": 7360,
    "BKC.</w>": 7361,
    "BC": 7362,
    "MOBILECARE</w>": 7363,
    "King's</w>": 7364,
    "lwp</w>": 7365,
    "Endorser's</w>": 7366,
    "NETGEAR": 7367,
    "AVDU</w>": 7368,
    "PCQ</w>": 7369,
    "SHB": 7370,
    "translation</w>": 7371,
    "prevail.</w>": 7372,
    "concerns</w>": 7373,
    "printing</w>": 7374,
    "profession": 7375,
    "IMUM</w>": 7376,
    "Team": 7377,
    "SEVER": 7378,
    "ARBITR": 7379,
    "Park": 7380,
    "adequately</w>": 7381,
    "future,</w>": 7382,
    "Period\"),</w>": 7383,
    "news</w>": 7384,
    "MANUFACTURING</w>": 7385,
    "RECEIV": 7386,
    "Contractors.</w>": 7387,
    "K,</w>": 7388,
    "disassem": 7389,
    "loaded</w>": 7390,
    "2.5.</w>": 7391,
    "EXCEED</w>": 7392,
    "symbols</w>": 7393,
    "day-to-day</w>": 7394,
    "transferred,</w>": 7395,
    "existence,</w>": 7396,
    "maxim": 7397,
    "Holder": 7398,
    "ing\"</w>": 7399,
    "long-": 7400,
    "r)</w>": 7401,
    "Transactions</w>": 7402,
    "discussed</w>": 7403,
    "85": 7404,
    "(F)</w>": 7405,
    "awards</w>": 7406,
    "herein)</w>": 7407,
    "Agency,</w>": 7408,
    "Interpretation.</w>": 7409,
    "sublicensable</w>": 7410,
    "A:</w>": 7411,
    "NEW</w>": 7412,
    "-based</w>": 7413,
    "References</w>": 7414,
    "Virgin": 7415,
    "improve</w>": 7416,
    "Development.</w>": 7417,
    "pipeline</w>": 7418,
    "-------------</w>": 7419,
    "Tariff.</w>": 7420,
    "Day,</w>": 7421,
    "Use": 7422,
    "Technology\"</w>": 7423,
    "Damages.</w>": 7424,
    "2_": 7425,
    "strategies</w>": 7426,
    "iii.</w>": 7427,
    "models,</w>": 7428,
    "restauran": 7429,
    "Withholding</w>": 7430,
    "+/": 7431,
    "\"[***]\".</w>": 7432,
    "Guide</w>": 7433,
    "AGAINST</w>": 7434,
    "assessments</w>": 7435,
    "Default.</w>": 7436,
    "conceived,</w>": 7437,
    "\"Additional</w>": 7438,
    "[...***...].</w>": 7439,
    "Gateway</w>": 7440,
    "EH": 7441,
    "Jasper</w>": 7442,
    "Record</w>": 7443,
    "CDQ</w>": 7444,
    "LOUISI": 7445,
    "Lobby</w>": 7446,
    "EA</w>": 7447,
    "AbbVie's</w>": 7448,
    "GSK's</w>": 7449,
    "RGA</w>": 7450,
    "Supported</w>": 7451,
    "Exhibit.</w>": 7452,
    "Amounts</w>": 7453,
    "misconduct,</w>": 7454,
    "themselves</w>": 7455,
    "Mid": 7456,
    "Knowledge,</w>": 7457,
    "\"In": 7458,
    "Conduct</w>": 7459,
    "}</w>": 7460,
    "advisors,</w>": 7461,
    "for:</w>": 7462,
    "involve</w>": 7463,
    "Washington</w>": 7464,
    "occurs,</w>": 7465,
    "one-half</w>": 7466,
    "arr": 7467,
    "adopt</w>": 7468,
    "10.8</w>": 7469,
    "just</w>": 7470,
    "residen": 7471,
    "consented</w>": 7472,
    "YOU</w>": 7473,
    "otherwise),</w>": 7474,
    "earthquake,</w>": 7475,
    "(regardless</w>": 7476,
    "member,</w>": 7477,
    "earliest</w>": 7478,
    "persons,</w>": 7479,
    "\"E": 7480,
    "worth</w>": 7481,
    "transaction": 7482,
    "Francis": 7483,
    "2nd</w>": 7484,
    "desired</w>": 7485,
    "meetings.</w>": 7486,
    "reissues,</w>": 7487,
    "FLOORING,</w>": 7488,
    "idth</w>": 7489,
    "6.8</w>": 7490,
    "goals</w>": 7491,
    "entries</w>": 7492,
    "PI</w>": 7493,
    "El": 7494,
    "admission</w>": 7495,
    "LU": 7496,
    "COMMERCI": 7497,
    "Saturday,</w>": 7498,
    "CMC</w>": 7499,
    "Pharmacovigilance</w>": 7500,
    "weighted</w>": 7501,
    "Signature": 7502,
    "cGMP": 7503,
    "3.5": 7504,
    "regulatory,</w>": 7505,
    "diagnostic</w>": 7506,
    "JC": 7507,
    "2.3": 7508,
    "CU": 7509,
    "referral</w>": 7510,
    "A.M.</w>": 7511,
    "Cause</w>": 7512,
    "payroll</w>": 7513,
    "Business;</w>": 7514,
    "shows</w>": 7515,
    "SSSS</w>": 7516,
    "Criter": 7517,
    "equipment.</w>": 7518,
    "Ridge</w>": 7519,
    "Instruments</w>": 7520,
    "(H": 7521,
    "Restaurant,</w>": 7522,
    "AMENDMENT</w>": 7523,
    "24B-2</w>": 7524,
    "SN": 7525,
    "scen": 7526,
    "KS": 7527,
    "Optional</w>": 7528,
    "Catalyst</w>": 7529,
    "Capacity.</w>": 7530,
    "Marple</w>": 7531,
    "9/23/2015</w>": 7532,
    "9012": 7533,
    "9012190": 7534,
    "9012190/": 7535,
    "9012190/26</w>": 7536,
    "W2E</w>": 7537,
    "Breach.</w>": 7538,
    "insolvent,</w>": 7539,
    "89": 7540,
    "Sales.</w>": 7541,
    "potentially</w>": 7542,
    "deadline</w>": 7543,
    "dealings</w>": 7544,
    "COMPENSATION</w>": 7545,
    "Bankruptcy.</w>": 7546,
    "from:</w>": 7547,
    "STRICT</w>": 7548,
    "FOREGO": 7549,
    "handled</w>": 7550,
    "dollars.</w>": 7551,
    "***.</w>": 7552,
    "resolution.</w>": 7553,
    "taining,</w>": 7554,
    "precautions</w>": 7555,
    "particular,</w>": 7556,
    "Journal</w>": 7557,
    "copies,</w>": 7558,
    "Signatory</w>": 7559,
    "77": 7560,
    "U.S.A.</w>": 7561,
    "Its</w>": 7562,
    "targeted</w>": 7563,
    ",INC_0": 7564,
    "RESTRIC": 7565,
    "Number:</w>": 7566,
    "divul": 7567,
    "administer</w>": 7568,
    "DEFAULT</w>": 7569,
    "guil": 7570,
    "JURISDIC": 7571,
    "guaranty</w>": 7572,
    "publish,</w>": 7573,
    "shareholder": 7574,
    "captions</w>": 7575,
    "wholly-owned</w>": 7576,
    "water,</w>": 7577,
    "m.,</w>": 7578,
    "Data\"</w>": 7579,
    "incurring</w>": 7580,
    "c/": 7581,
    "ACTIONS</w>": 7582,
    "T/": 7583,
    "ford</w>": 7584,
    "OUTSOURCING</w>": 7585,
    "news": 7586,
    "HPS</w>": 7587,
    "Supplemental</w>": 7588,
    "1.20</w>": 7589,
    "1.21</w>": 7590,
    "\"G": 7591,
    "guidelines,</w>": 7592,
    "prejudiced</w>": 7593,
    "inclusive</w>": 7594,
    "1(a)": 7595,
    "gy": 7596,
    "People's</w>": 7597,
    "meanings:</w>": 7598,
    "Pharmaceuticals,</w>": 7599,
    "otball</w>": 7600,
    "1/7/": 7601,
    "Encorafenib</w>": 7602,
    "accordingly.</w>": 7603,
    "engineering,</w>": 7604,
    "biological</w>": 7605,
    "carriers</w>": 7606,
    "HOSTING</w>": 7607,
    "furnishings,</w>": 7608,
    "Create</w>": 7609,
    "Beij": 7610,
    "Pacific</w>": 7611,
    "Features</w>": 7612,
    "BLA</w>": 7613,
    "Employer</w>": 7614,
    "DC": 7615,
    "Vehicles</w>": 7616,
    "Substitute</w>": 7617,
    "BKC's</w>": 7618,
    "Personality</w>": 7619,
    "Axiometric</w>": 7620,
    "NEOFORMA</w>": 7621,
    "Cartridges</w>": 7622,
    "authorship</w>": 7623,
    "strike,</w>": 7624,
    "describes</w>": 7625,
    "concurrently</w>": 7626,
    "PURPOSE,</w>": 7627,
    "claim;</w>": 7628,
    "d:</w>": 7629,
    "foreign,</w>": 7630,
    "INDEMNITY</w>": 7631,
    "resolution,</w>": 7632,
    "Cosmetic</w>": 7633,
    "d-looking</w>": 7634,
    "institute</w>": 7635,
    "tariff": 7636,
    "3.9</w>": 7637,
    "organ": 7638,
    "failure,</w>": 7639,
    "3.0": 7640,
    "end-user</w>": 7641,
    "invoices,</w>": 7642,
    "FINANCIAL</w>": 7643,
    "Savings</w>": 7644,
    "underwriting</w>": 7645,
    "accountants,</w>": 7646,
    "(p)</w>": 7647,
    "unaudited</w>": 7648,
    "long-term</w>": 7649,
    "descriptions</w>": 7650,
    "Certified</w>": 7651,
    "Nasdaq</w>": 7652,
    "authorities,</w>": 7653,
    "LAWS</w>": 7654,
    "revert</w>": 7655,
    "quare</w>": 7656,
    "nevertheless</w>": 7657,
    "Successor": 7658,
    "Usage</w>": 7659,
    "overdue</w>": 7660,
    "accounts,</w>": 7661,
    "A;</w>": 7662,
    "umetric</w>": 7663,
    "ATP</w>": 7664,
    "Laws\"</w>": 7665,
    "Sales\"</w>": 7666,
    "Product-by-": 7667,
    "follows</w>": 7668,
    "INDEPENDENT</w>": 7669,
    "cia</w>": 7670,
    "achieving</w>": 7671,
    "1/7/2019</w>": 7672,
    "morph": 7673,
    "observ": 7674,
    "10.4": 7675,
    "INCIDENTAL</w>": 7676,
    "1.0</w>": 7677,
    "bills</w>": 7678,
    "wrongful</w>": 7679,
    "created,</w>": 7680,
    "Johnson</w>": 7681,
    "I.": 7682,
    "MOD</w>": 7683,
    "Businesses</w>": 7684,
    "050": 7685,
    "ht": 7686,
    "Purchaser,</w>": 7687,
    "Continuing</w>": 7688,
    "Murray</w>": 7689,
    "FURN": 7690,
    "Specialty</w>": 7691,
    "CINEMA</w>": 7692,
    "Manufacturer,</w>": 7693,
    "/F": 7694,
    "$[*]</w>": 7695,
    "Pooled</w>": 7696,
    "RANGE</w>": 7697,
    "LOUISIANA,</w>": 7698,
    "4/17/": 7699,
    "4/17/2015</w>": 7700,
    "Borrower": 7701,
    "SCANSOUR": 7702,
    "Ogle</w>": 7703,
    "SutroVax's</w>": 7704,
    "Vertex</w>": 7705,
    "DISCLOSED.</w>": 7706,
    "incurred,</w>": 7707,
    "6)</w>": 7708,
    "systems.</w>": 7709,
    "Venture.</w>": 7710,
    "heir": 7711,
    "distributors,</w>": 7712,
    "3.4.</w>": 7713,
    "targets</w>": 7714,
    "workmanship</w>": 7715,
    "entirely</w>": 7716,
    "attachment</w>": 7717,
    "(C": 7718,
    "Resolution": 7719,
    "Attachments</w>": 7720,
    "either": 7721,
    "bonus</w>": 7722,
    "amendments,</w>": 7723,
    "gif": 7724,
    "Anderson's</w>": 7725,
    "imply</w>": 7726,
    "forward-looking</w>": 7727,
    "COSTS</w>": 7728,
    "franchised</w>": 7729,
    "permanen": 7730,
    "subscribers</w>": 7731,
    "blue</w>": 7732,
    "bound.</w>": 7733,
    "decision,</w>": 7734,
    "(A": 7735,
    "c/o</w>": 7736,
    "Seller,</w>": 7737,
    "Ontario</w>": 7738,
    "Help</w>": 7739,
    "Internet.</w>": 7740,
    "Evalu": 7741,
    "_EX-10.1_": 7742,
    "ok</w>": 7743,
    "1.22</w>": 7744,
    "Pharmaceuticals</w>": 7745,
    "Sale,</w>": 7746,
    "Control\"</w>": 7747,
    "temporarily</w>": 7748,
    "3(b)</w>": 7749,
    "samples,</w>": 7750,
    "3.4": 7751,
    "Other": 7752,
    "poen": 7753,
    "alty</w>": 7754,
    "Threshold</w>": 7755,
    "reactor": 7756,
    "assay</w>": 7757,
    "incidental,</w>": 7758,
    "MAJEURE</w>": 7759,
    "Santa</w>": 7760,
    "1320": 7761,
    "websites</w>": 7762,
    "Members.</w>": 7763,
    "Restaurants</w>": 7764,
    "emails</w>": 7765,
    "circu": 7766,
    "Robert</w>": 7767,
    "Requested***</w>": 7768,
    "Pipeline.</w>": 7769,
    "TRUST</w>": 7770,
    "MIL": 7771,
    "Schoolpop": 7772,
    "LK": 7773,
    "MacroGenic": 7774,
    "1.lwp</w>": 7775,
    "Otis</w>": 7776,
    "Sekisui's</w>": 7777,
    "relationship,</w>": 7778,
    "Party\"),</w>": 7779,
    "terrorism,</w>": 7780,
    "drafted</w>": 7781,
    "much</w>": 7782,
    "necessarily</w>": 7783,
    "Corrupt</w>": 7784,
    "Miscellaneous</w>": 7785,
    "21": 7786,
    "TOM</w>": 7787,
    "views</w>": 7788,
    "rd</w>": 7789,
    "funded</w>": 7790,
    "epidem": 7791,
    "shipment.</w>": 7792,
    "9.8</w>": 7793,
    "certain": 7794,
    "interference</w>": 7795,
    "property;</w>": 7796,
    "purported</w>": 7797,
    "threat</w>": 7798,
    "guilty</w>": 7799,
    "contractors.</w>": 7800,
    "misleading,</w>": 7801,
    "bylaws</w>": 7802,
    "resulted</w>": 7803,
    "p,</w>": 7804,
    "permit,</w>": 7805,
    "paragraph.</w>": 7806,
    "\"herein": 7807,
    "venturer": 7808,
    "Attorneys'</w>": 7809,
    "automatic</w>": 7810,
    "1%</w>": 7811,
    "Know-How.</w>": 7812,
    "Jury</w>": 7813,
    "05-": 7814,
    "05-Sep-2019</w>": 7815,
    "84</w>": 7816,
    "surroun": 7817,
    "confidential": 7818,
    "Georg": 7819,
    "Atlan": 7820,
    "Rules,</w>": 7821,
    "Ownership.</w>": 7822,
    "n.</w>": 7823,
    "creative</w>": 7824,
    "managers,</w>": 7825,
    "(k": 7826,
    "INVEST": 7827,
    "\"Minimum</w>": 7828,
    "Throug": 7829,
    "shipment,</w>": 7830,
    "5_": 7831,
    "ALIZATION</w>": 7832,
    "below);</w>": 7833,
    "y-by-": 7834,
    "-day</w>": 7835,
    "Components,</w>": 7836,
    "content.</w>": 7837,
    "NFL</w>": 7838,
    "Reimbursement</w>": 7839,
    "shortfall</w>": 7840,
    "subpoen": 7841,
    "Rate": 7842,
    "non-renewal</w>": 7843,
    "Hand": 7844,
    "Platform,</w>": 7845,
    "Grants</w>": 7846,
    "Targeted</w>": 7847,
    "users.</w>": 7848,
    "institutional</w>": 7849,
    "indemnitee</w>": 7850,
    "Debt</w>": 7851,
    "WEB</w>": 7852,
    "View</w>": 7853,
    "bw-3</w>": 7854,
    "Facility.</w>": 7855,
    "JPT</w>": 7856,
    "Java</w>": 7857,
    "GEPO": 7858,
    "Commodity</w>": 7859,
    "\"New</w>": 7860,
    "OS</w>": 7861,
    "attorney-": 7862,
    "Vitamin</w>": 7863,
    "Diet</w>": 7864,
    "Franchisor's</w>": 7865,
    "Flotek</w>": 7866,
    "ConvergTV</w>": 7867,
    "FDD</w>": 7868,
    "Leasing</w>": 7869,
    "(USD)</w>": 7870,
    "Sabco</w>": 7871,
    "7.7.": 7872,
    "Nettaxi</w>": 7873,
    "Sanofi's</w>": 7874,
    "Didi</w>": 7875,
    "SHBV</w>": 7876,
    "PUBLICLY</w>": 7877,
    "embodiments</w>": 7878,
    "SIGNATURE</w>": 7879,
    "principles,</w>": 7880,
    "heirs,</w>": 7881,
    "RESPONSIBILITIES</w>": 7882,
    "presentations</w>": 7883,
    "{*****": 7884,
    "personnel.</w>": 7885,
    "Nations</w>": 7886,
    "Discount</w>": 7887,
    "Tier</w>": 7888,
    "Serial</w>": 7889,
    "Quantity</w>": 7890,
    "Texas,</w>": 7891,
    "acknowledgment</w>": 7892,
    "ins": 7893,
    "across</w>": 7894,
    "Addendum": 7895,
    "Equipment.</w>": 7896,
    "consequential,</w>": 7897,
    "referring</w>": 7898,
    "10.7</w>": 7899,
    "sbsp": 7900,
    "EQUIPMENT</w>": 7901,
    "WARRANTY,</w>": 7902,
    "inconvenient</w>": 7903,
    "___": 7904,
    "OPERATIONS</w>": 7905,
    "&b": 7906,
    "&bbsp": 7907,
    "leave</w>": 7908,
    "dealers</w>": 7909,
    "misleading;</w>": 7910,
    "u)</w>": 7911,
    "L.P.,</w>": 7912,
    "Representative": 7913,
    "significan": 7914,
    "stockholder</w>": 7915,
    "discussions,</w>": 7916,
    "\"hereunder": 7917,
    "GP,</w>": 7918,
    "continuously</w>": 7919,
    "TO:</w>": 7920,
    "Armstrong</w>": 7921,
    "Tennes": 7922,
    "continuation": 7923,
    "ishing</w>": 7924,
    "PROGRAM</w>": 7925,
    "Long</w>": 7926,
    "automated</w>": 7927,
    "often</w>": 7928,
    "2/2019</w>": 7929,
    "1.25</w>": 7930,
    "1.26</w>": 7931,
    "invoicing</w>": 7932,
    "electrical</w>": 7933,
    "sake</w>": 7934,
    "(100%)</w>": 7935,
    "REGULATOR": 7936,
    "Authorities.</w>": 7937,
    "PAYMENTS</w>": 7938,
    "\"hereof": 7939,
    "Signature:</w>": 7940,
    "on-line</w>": 7941,
    "Standards,</w>": 7942,
    "Invoices</w>": 7943,
    "uary,</w>": 7944,
    "seconds</w>": 7945,
    "facilities.</w>": 7946,
    "73</w>": 7947,
    "B:</w>": 7948,
    "Escalation</w>": 7949,
    "excise,</w>": 7950,
    "Person's</w>": 7951,
    "Mir": 7952,
    "responsibility,</w>": 7953,
    "\"Un": 7954,
    "WAY</w>": 7955,
    "OIL</w>": 7956,
    "59": 7957,
    "heat</w>": 7958,
    "Paul</w>": 7959,
    "?</w>": 7960,
    "virus</w>": 7961,
    "key": 7962,
    "12/20/2011</w>": 7963,
    "Video</w>": 7964,
    "Pfizer": 7965,
    "FUEL": 7966,
    "Advertising/Marketing": 7967,
    "Advertising/Marketing/": 7968,
    "Advertising/Marketing/Educational</w>": 7969,
    "sow050": 7970,
    "sow0501.lwp</w>": 7971,
    "Lucent</w>": 7972,
    "PHL": 7973,
    "ABG's</w>": 7974,
    "North's</w>": 7975,
    "HDS</w>": 7976,
    "MedImmune</w>": 7977,
    "Spinrecor": 7978,
    "submarine</w>": 7979,
    "M&I's</w>": 7980,
    "except,</w>": 7981,
    "seiz": 7982,
    "military</w>": 7983,
    "subs": 7984,
    "2000,</w>": 7985,
    "/A</w>": 7986,
    "MR": 7987,
    "PERMITTED</w>": 7988,
    "Submission</w>": 7989,
    "orderly</w>": 7990,
    "{*****}</w>": 7991,
    "39": 7992,
    "COPY</w>": 7993,
    "Y\"</w>": 7994,
    "world.</w>": 7995,
    "ber,</w>": 7996,
    "rollment</w>": 7997,
    "programs.</w>": 7998,
    "Only</w>": 7999,
    "debarment</w>": 8000,
    "Orders,</w>": 8001,
    "ness,</w>": 8002,
    "Uniform</w>": 8003,
    "Item": 8004,
    "Choice</w>": 8005,
    "chief</w>": 8006,
    "\"AS</w>": 8007,
    "guarantee,</w>": 8008,
    "warehouse</w>": 8009,
    "maximize</w>": 8010,
    "standard,</w>": 8011,
    "Franchise": 8012,
    "subscribed</w>": 8013,
    "onto</w>": 8014,
    "ium,</w>": 8015,
    "true,</w>": 8016,
    "Subsequent</w>": 8017,
    "(within</w>": 8018,
    "ce),</w>": 8019,
    "83</w>": 8020,
    "amounts,</w>": 8021,
    "escalation</w>": 8022,
    "traordinary</w>": 8023,
    "Transaction": 8024,
    "for-": 8025,
    "Inc.": 8026,
    "EXPIR": 8027,
    "Grant.</w>": 8028,
    "Souther": 8029,
    "Southern</w>": 8030,
    "convenient</w>": 8031,
    "claims.</w>": 8032,
    "OP": 8033,
    "8_": 8034,
    "2(c)</w>": 8035,
    "Saturday</w>": 8036,
    "FINRA</w>": 8037,
    "together,</w>": 8038,
    "Fif": 8039,
    "Shipper,</w>": 8040,
    "bid</w>": 8041,
    "Throughout</w>": 8042,
    "Ta": 8043,
    "Corruption</w>": 8044,
    "1.23</w>": 8045,
    "1.24</w>": 8046,
    "implication,</w>": 8047,
    "5.2.1</w>": 8048,
    "fourth</w>": 8049,
    ",000,000)</w>": 8050,
    "%).</w>": 8051,
    "herein),</w>": 8052,
    "(10%)</w>": 8053,
    "iv.</w>": 8054,
    "mail.</w>": 8055,
    "tools,</w>": 8056,
    "unused</w>": 8057,
    "participants</w>": 8058,
    "NJ</w>": 8059,
    "PMDA</w>": 8060,
    "Meetings.</w>": 8061,
    "pharmacovigilance</w>": 8062,
    "Inspection</w>": 8063,
    "71</w>": 8064,
    "trig": 8065,
    "non-conforming</w>": 8066,
    "Means</w>": 8067,
    "(e).</w>": 8068,
    "pressure</w>": 8069,
    "[...***...]": 8070,
    "COMMITTE": 8071,
    "Biological</w>": 8072,
    "Friday</w>": 8073,
    "BLI's</w>": 8074,
    "transmitting</w>": 8075,
    "hourly</w>": 8076,
    "cards</w>": 8077,
    "izza</w>": 8078,
    "CHANGEPO": 8079,
    "User's</w>": 8080,
    "My</w>": 8081,
    "China.</w>": 8082,
    "Louisiana</w>": 8083,
    "Carrier,</w>": 8084,
    "Terpene</w>": 8085,
    "FUELCELL</w>": 8086,
    "GOOSEHEAD</w>": 8087,
    "PSM</w>": 8088,
    "HOFV</w>": 8089,
    "NFLA-": 8090,
    "LeadersOn": 8091,
    "Debentures</w>": 8092,
    "MUSCLE": 8093,
    "MUSCLEPHAR": 8094,
    "On2's</w>": 8095,
    "[Redacted</w>": 8096,
    "PB,</w>": 8097,
    "QUANTUM</w>": 8098,
    "/FL,</w>": 8099,
    "1/20/2009</w>": 8100,
    "SCANSOURCE,</w>": 8101,
    "[***]*</w>": 8102,
    "XF": 8103,
    "\"Parties\".</w>": 8104,
    "type,</w>": 8105,
    "identical</w>": 8106,
    "ying,</w>": 8107,
    "',</w>": 8108,
    "facility,</w>": 8109,
    "\"Term\").</w>": 8110,
    "(S)</w>": 8111,
    "instead</w>": 8112,
    "situated</w>": 8113,
    "paragraph,</w>": 8114,
    "conclusive</w>": 8115,
    "Patient</w>": 8116,
    "matters.</w>": 8117,
    "recru": 8118,
    "OD": 8119,
    "biopharmaceutical</w>": 8120,
    "therapeutic</w>": 8121,
    "schedule.</w>": 8122,
    "ACTION,</w>": 8123,
    "differences</w>": 8124,
    "&sbsp": 8125,
    "EMPLOYE": 8126,
    "ships,</w>": 8127,
    "agreeing</w>": 8128,
    "expense;</w>": 8129,
    "post-effective</w>": 8130,
    "customarily</w>": 8131,
    "enterprise</w>": 8132,
    "preemptive</w>": 8133,
    "(xi)</w>": 8134,
    "pending,</w>": 8135,
    "appointment,</w>": 8136,
    "Dealer": 8137,
    "significantly</w>": 8138,
    "Period\")</w>": 8139,
    "style</w>": 8140,
    "conveyance</w>": 8141,
    "6.3,</w>": 8142,
    "addresses,</w>": 8143,
    "rules.</w>": 8144,
    "chooses</w>": 8145,
    "Day.</w>": 8146,
    "behalf.</w>": 8147,
    "strikes</w>": 8148,
    "RMA</w>": 8149,
    "Agreed</w>": 8150,
    "variations</w>": 8151,
    "derivatives</w>": 8152,
    "taxes.</w>": 8153,
    "REGARD": 8154,
    "REGARDLESS</w>": 8155,
    "applicable),</w>": 8156,
    "S)</w>": 8157,
    "\"Non-": 8158,
    "Article,</w>": 8159,
    "Shipments</w>": 8160,
    "assessments,</w>": 8161,
    "COUNTER": 8162,
    "Binimetinib</w>": 8163,
    "Diligent</w>": 8164,
    "debtor</w>": 8165,
    "81</w>": 8166,
    "Reconc": 8167,
    "goes</w>": 8168,
    "Unit,</w>": 8169,
    "agenda</w>": 8170,
    "THEORY</w>": 8171,
    "Out": 8172,
    "Revenue\"</w>": 8173,
    "Fund's</w>": 8174,
    "BB": 8175,
    "AAA</w>": 8176,
    "F&": 8177,
    "Sale.</w>": 8178,
    "burg</w>": 8179,
    "area,</w>": 8180,
    "Analytical</w>": 8181,
    "M-5700": 8182,
    "M-5700-00": 8183,
    "Warrants</w>": 8184,
    "germ": 8185,
    "germplas": 8186,
    "Summary</w>": 8187,
    "ba": 8188,
    "Developer,</w>": 8189,
    "3.3(c)</w>": 8190,
    "Equifax": 8191
  },
  "id_to_token": {
    "0": "<pad>",
    "1": "<unk>",
    "2": "<bos>",
    "3": "<eos>",
    "4": "!",
    "5": "\"",
    "6": "#",
    "7": "$",
    "8": "%",
    "9": "&",
    "10": "'",
    "11": "(",
    "12": ")",
    "13": "*",
    "14": "+",
    "15": ",",
    "16": "-",
    "17": ".",
    "18": "/",
    "19": "0",
    "20": "1",
    "21": "2",
    "22": "3",
    "23": "4",
    "24": "5",
    "25": "6",
    "26": "7",
    "27": "8",
    "28": "9",
    "29": ":",
    "30": ";",
    "31": "<",
    "32": "</w>",
    "33": "=",
    "34": ">",
    "35": "?",
    "36": "@",
    "37": "A",
    "38": "B",
    "39": "C",
    "40": "D",
    "41": "E",
    "42": "F",
    "43": "G",
    "44": "H",
    "45": "I",
    "46": "J",
    "47": "K",
    "48": "L",
    "49": "M",
    "50": "N",
    "51": "O",
    "52": "P",
    "53": "Q",
    "54": "R",
    "55": "S",
    "56": "T",
    "57": "U",
    "58": "V",
    "59": "W",
    "60": "X",
    "61": "Y",
    "62": "Z",
    "63": "[",
    "64": "\\",
    "65": "]",
    "66": "_",
    "67": "a",
    "68": "b",
    "69": "c",
    "70": "d",
    "71": "e",
    "72": "f",
    "73": "g",
    "74": "h",
    "75": "i",
    "76": "j",
    "77": "k",
    "78": "l",
    "79": "m",
    "80": "n",
    "81": "o",
    "82": "p",
    "83": "q",
    "84": "r",
    "85": "s",
    "86": "t",
    "87": "u",
    "88": "v",
    "89": "w",
    "90": "x",
    "91": "y",
    "92": "z",
    "93": "{",
    "94": "|",
    "95": "}",
    "96": "~",
    "97": "e</w>",
    "98": "th",
    "99": "s</w>",
    "100": "in",
    "101": "an",
    "102": "er",
    "103": "on",
    "104": "d</w>",
    "105": "or",
    "106": "t</w>",
    "107": "en",
    "108": "y</w>",
    "109": "ti",
    "110": ",</w>",
    "111": "the</w>",
    "112": "re",
    "113": "al",
    "114": "of",
    "115": "or</w>",
    "116": "o</w>",
    "117": "of</w>",
    "118": "tion",
    "119": "to</w>",
    "120": "ar",
    "121": "and</w>",
    "122": "--",
    "123": ".</w>",
    "124": "ed</w>",
    "125": "ro",
    "126": "er</w>",
    "127": "l</w>",
    "128": "at",
    "129": "ch",
    "130": "g</w>",
    "131": "men",
    "132": "in</w>",
    "133": "ec",
    "134": "it",
    "135": "ic",
    "136": "es</w>",
    "137": "su",
    "138": "es",
    "139": "is",
    "140": "ing</w>",
    "141": "all</w>",
    "142": "any</w>",
    "143": ")</w>",
    "144": "il",
    "145": "----",
    "146": "om",
    "147": "ac",
    "148": "sh",
    "149": "emen",
    "150": "ur",
    "151": "un",
    "152": "gre",
    "153": "pro",
    "154": "a</w>",
    "155": "bl",
    "156": "el",
    "157": "con",
    "158": "with",
    "159": "us",
    "160": "shall</w>",
    "161": "ts</w>",
    "162": "**",
    "163": "as",
    "164": "ation</w>",
    "165": "by</w>",
    "166": "pl",
    "167": "greemen",
    "168": "tr",
    "169": "ig",
    "170": "id",
    "171": "no",
    "172": "on</w>",
    "173": "ch</w>",
    "174": "be</w>",
    "175": "art",
    "176": "Agreemen",
    "177": "for",
    "178": "such</w>",
    "179": "du",
    "180": "this</w>",
    "181": "de",
    "182": "ex",
    "183": "per",
    "184": "oth",
    "185": "cl",
    "186": "with</w>",
    "187": "s,</w>",
    "188": "ve</w>",
    "189": "ma",
    "190": "abl",
    "191": "ol",
    "192": "ter",
    "193": "qu",
    "194": "ce</w>",
    "195": "--------",
    "196": "im",
    "197": "prov",
    "198": "os",
    "199": "that</w>",
    "200": "ap",
    "201": "ent</w>",
    "202": "In",
    "203": "en</w>",
    "204": "other</w>",
    "205": "duc",
    "206": "e,</w>",
    "207": "ate</w>",
    "208": "Pro",
    "209": "arty</w>",
    "210": "ly</w>",
    "211": "iv",
    "212": "if",
    "213": "t,</w>",
    "214": "ed",
    "215": "able</w>",
    "216": "wh",
    "217": "ir",
    "218": "ul",
    "219": "an</w>",
    "220": "st",
    "221": "com",
    "222": "Th",
    "223": "ag",
    "224": "==",
    "225": "em",
    "226": "ens",
    "227": "ow",
    "228": "not</w>",
    "229": ":</w>",
    "230": "ut",
    "231": "wil",
    "232": "Com",
    "233": "term",
    "234": "ff",
    "235": "***",
    "236": "S</w>",
    "237": "will</w>",
    "238": "ection</w>",
    "239": "ta",
    "240": "co",
    "241": "ev",
    "242": "pec",
    "243": "'s</w>",
    "244": "ran",
    "245": "ce",
    "246": "am",
    "247": "ding</w>",
    "248": "]</w>",
    "249": "igh",
    "250": ";</w>",
    "251": "E</w>",
    "252": "y,</w>",
    "253": "ib",
    "254": "ip",
    "255": "ER",
    "256": "ing",
    "257": "ity</w>",
    "258": "up",
    "259": "under</w>",
    "260": "pr",
    "261": "se",
    "262": "Party</w>",
    "263": "Produc",
    "264": "ay",
    "265": "clu",
    "266": "IN",
    "267": "ated</w>",
    "268": "be",
    "269": "por",
    "270": "ad",
    "271": "oc",
    "272": "..",
    "273": ".1",
    "274": "here",
    "275": "requ",
    "276": "EN",
    "277": "ted</w>",
    "278": "Con",
    "279": "inclu",
    "280": "me",
    "281": "TI",
    "282": "[***",
    "283": "ON",
    "284": "righ",
    "285": "The</w>",
    "286": "\"</w>",
    "287": "ha",
    "288": "Comp",
    "289": "s.</w>",
    "290": "ver",
    "291": "which</w>",
    "292": "from",
    "293": "AN",
    "294": "Section</w>",
    "295": "eg",
    "296": "from</w>",
    "297": "T</w>",
    "298": "t.</w>",
    "299": "dis",
    "300": "i)</w>",
    "301": "ess</w>",
    "302": "20",
    "303": "__",
    "304": "k</w>",
    "305": "----------------",
    "306": "ance</w>",
    "307": "ign",
    "308": "ations</w>",
    "309": "m</w>",
    "310": "pur",
    "311": "have</w>",
    "312": "2</w>",
    "313": "our",
    "314": "Ex",
    "315": "plic",
    "316": "sub",
    "317": "D</w>",
    "318": "ect</w>",
    "319": "aw",
    "320": "ab",
    "321": "act",
    "322": "[***]</w>",
    "323": "wr",
    "324": "tw",
    "325": "====",
    "326": "RE",
    "327": "termin",
    "328": "arties</w>",
    "329": "reas",
    "330": "ial</w>",
    "331": "op",
    "332": "out</w>",
    "333": "TH",
    "334": "th</w>",
    "335": "ion",
    "336": "OR",
    "337": "reason",
    "338": "10",
    "339": "ty</w>",
    "340": "iz",
    "341": "A</w>",
    "342": "3</w>",
    "343": "each</w>",
    "344": "applic",
    "345": "party</w>",
    "346": "ar</w>",
    "347": "AR",
    "348": "blig",
    "349": "ten",
    "350": "formation</w>",
    "351": "f</w>",
    "352": "Ter",
    "353": "including</w>",
    "354": "L</w>",
    "355": "),</w>",
    "356": "li",
    "357": "mean",
    "358": "Y</w>",
    "359": "od",
    "360": "ally</w>",
    "361": "ant</w>",
    "362": "ts,</w>",
    "363": "oblig",
    "364": "oll",
    "365": "-</w>",
    "366": "oun",
    "367": "af",
    "368": "Ser",
    "369": "usin",
    "370": "to",
    "371": "4</w>",
    "372": "fiden",
    "373": "set</w>",
    "374": "(i",
    "375": "cep",
    "376": "5</w>",
    "377": "Company</w>",
    "378": "ke",
    "379": "ass",
    "380": "fa",
    "381": "Agreement,</w>",
    "382": "pon",
    "383": "Serv",
    "384": "1</w>",
    "385": "00",
    "386": "Product</w>",
    "387": "y.</w>",
    "388": "ge</w>",
    "389": "TION",
    "390": "writ",
    "391": "uthor",
    "392": "ject</w>",
    "393": "C</w>",
    "394": "LI",
    "395": "dition",
    "396": "written</w>",
    "397": "cur",
    "398": "provided</w>",
    "399": "perfor",
    "400": "OF",
    "401": "forth</w>",
    "402": "respect</w>",
    "403": "exp",
    "404": "Part",
    "405": "ew",
    "406": "fin",
    "407": "other",
    "408": "trans",
    "409": "serv",
    "410": "Agreement.</w>",
    "411": "ies</w>",
    "412": "ual</w>",
    "413": "ied</w>",
    "414": "ific",
    "415": "Ac",
    "416": "ior</w>",
    "417": "....",
    "418": "and",
    "419": "tain",
    "420": "usiness</w>",
    "421": "Su",
    "422": "pay",
    "423": "tly</w>",
    "424": "(b",
    "425": "go",
    "426": "ven",
    "427": "ye",
    "428": "(a",
    "429": "without</w>",
    "430": "ing,</w>",
    "431": "6</w>",
    "432": "ary</w>",
    "433": "Re",
    "434": "2.",
    "435": "sol",
    "436": "ollow",
    "437": "own",
    "438": "e.</w>",
    "439": "ou",
    "440": "fidential</w>",
    "441": "cr",
    "442": "law",
    "443": "ffec",
    "444": "terms</w>",
    "445": "ther</w>",
    "446": "ain",
    "447": "rights</w>",
    "448": "after</w>",
    "449": "____",
    "450": "provis",
    "451": "applicable</w>",
    "452": "ird</w>",
    "453": "9</w>",
    "454": "demn",
    "455": "AT",
    "456": "spec",
    "457": "contr",
    "458": "1.",
    "459": "follow",
    "460": "MEN",
    "461": "accor",
    "462": "ud",
    "463": ").</w>",
    "464": "empl",
    "465": "pursu",
    "466": "within</w>",
    "467": "right</w>",
    "468": "ship",
    "469": "prior</w>",
    "470": "elop",
    "471": "8</w>",
    "472": "7</w>",
    "473": "gen",
    "474": "otherw",
    "475": "the",
    "476": "pons",
    "477": "information</w>",
    "478": "cla",
    "479": "le",
    "480": "pursuant</w>",
    "481": "been</w>",
    "482": "Aff",
    "483": "(a)</w>",
    "484": "Affili",
    "485": "OF</w>",
    "486": "provide</w>",
    "487": "ranch",
    "488": "ial",
    "489": "ob",
    "490": "oin",
    "491": "3.",
    "492": "0</w>",
    "493": "author",
    "494": "av",
    "495": "notice</w>",
    "496": "mit",
    "497": "means</w>",
    "498": "accord",
    "499": "An",
    "500": "SE",
    "501": "et</w>",
    "502": "comp",
    "503": "(b)</w>",
    "504": "Per",
    "505": "========",
    "506": "either</w>",
    "507": "required</w>",
    "508": "ation,</w>",
    "509": "accordance</w>",
    "510": "reasonable</w>",
    "511": "ments</w>",
    "512": "Ap",
    "513": "ions</w>",
    "514": "obligations</w>",
    "515": "day",
    "516": "cept</w>",
    "517": "AG",
    "518": "Man",
    "519": "Tr",
    "520": "*]</w>",
    "521": "OR</w>",
    "522": "ates</w>",
    "523": "ir</w>",
    "524": "direc",
    "525": "I</w>",
    "526": "min",
    "527": "ref",
    "528": "one</w>",
    "529": "under",
    "530": "part",
    "531": "subject</w>",
    "532": "M</w>",
    "533": "In</w>",
    "534": "date</w>",
    "535": "discl",
    "536": "CH",
    "537": "ufact",
    "538": "mis",
    "539": "um",
    "540": "No",
    "541": "conn",
    "542": "Distr",
    "543": "ack",
    "544": "ute</w>",
    "545": "our</w>",
    "546": "If</w>",
    "547": "Mar",
    "548": "inv",
    "549": "O</w>",
    "550": "ue</w>",
    "551": "Distrib",
    "552": "otherwise</w>",
    "553": "Products</w>",
    "554": "(ii)</w>",
    "555": "ffective</w>",
    "556": "ds</w>",
    "557": "ou</w>",
    "558": "mon",
    "559": "pers",
    "560": "hib",
    "561": "approv",
    "562": "4.",
    "563": "201",
    "564": "Un",
    "565": "x</w>",
    "566": "RO",
    "567": "gr",
    "568": "Franch",
    "569": "sion</w>",
    "570": "ew</w>",
    "571": "Ad",
    "572": "Confidential</w>",
    "573": "connection</w>",
    "574": "--------------------------------",
    "575": "represen",
    "576": "business</w>",
    "577": "during</w>",
    "578": "peri",
    "579": "INC",
    "580": "IC",
    "581": "AND</w>",
    "582": "vern",
    "583": "ical</w>",
    "584": "emplo",
    "585": "ER</w>",
    "586": "IT",
    "587": "arran",
    "588": "days</w>",
    "589": "een</w>",
    "590": "THE</w>",
    "591": "pa",
    "592": "Sour",
    "593": "/or</w>",
    "594": "amoun",
    "595": "En",
    "596": "ks</w>",
    "597": "IB",
    "598": "ed,</w>",
    "599": "Sub",
    "600": "fe",
    "601": "and/or</w>",
    "602": "y's</w>",
    "603": "reasonably</w>",
    "604": "P</w>",
    "605": "their</w>",
    "606": "EX",
    "607": "G</w>",
    "608": "h</w>",
    "609": "AL",
    "610": "ES",
    "611": "following</w>",
    "612": "ified</w>",
    "613": "exec",
    "614": "ED</w>",
    "615": "Trans",
    "616": "*</w>",
    "617": "\")</w>",
    "618": "ability</w>",
    "619": "Al",
    "620": "merc",
    "621": "oftw",
    "622": "termination</w>",
    "623": "assign",
    "624": "material</w>",
    "625": "Dat",
    "626": "ful",
    "627": "ork</w>",
    "628": "Customer</w>",
    "629": "De",
    "630": "og",
    "631": "ce:</w>",
    "632": "Pl",
    "633": "CO",
    "634": "IS",
    "635": "but</w>",
    "636": "agrees</w>",
    "637": "port</w>",
    "638": ".,</w>",
    "639": "regul",
    "640": "Source:</w>",
    "641": "pos",
    "642": "Ar",
    "643": "tween</w>",
    "644": "5.",
    "645": "between</w>",
    "646": "ts.</w>",
    "647": "agree</w>",
    "648": "ether</w>",
    "649": "fir",
    "650": "AC",
    "651": "ecess",
    "652": "necess",
    "653": "sign",
    "654": "(c",
    "655": "pen",
    "656": "ite</w>",
    "657": "extent</w>",
    "658": "This</w>",
    "659": "roug",
    "660": "yst",
    "661": "ard</w>",
    "662": "atory</w>",
    "663": "Cl",
    "664": "MENT</w>",
    "665": "change</w>",
    "666": "doc",
    "667": "(\"",
    "668": "Contr",
    "669": "19",
    "670": "nowled",
    "671": "cons",
    "672": "Agreement",
    "673": "respons",
    "674": "ail",
    "675": "Indemn",
    "676": "As",
    "677": "[***]",
    "678": "except</w>",
    "679": "hibit</w>",
    "680": "so</w>",
    "681": "ee</w>",
    "682": "loc",
    "683": "keting</w>",
    "684": "receiv",
    "685": "ic</w>",
    "686": "Information</w>",
    "687": "breach</w>",
    "688": "ship</w>",
    "689": "related</w>",
    "690": "oint</w>",
    "691": "develop",
    "692": "(the</w>",
    "693": "tained</w>",
    "694": "Ban",
    "695": "pu",
    "696": "necessary</w>",
    "697": "hol",
    "698": "third</w>",
    "699": "form</w>",
    "700": "dic",
    "701": "into</w>",
    "702": "sim",
    "703": "tual</w>",
    "704": "ner</w>",
    "705": "propri",
    "706": "6.",
    "707": "mitted</w>",
    "708": "'</w>",
    "709": "Services</w>",
    "710": "ii)</w>",
    "711": "provisions</w>",
    "712": "ca",
    "713": "tel",
    "714": "ne",
    "715": "(c)</w>",
    "716": "Licensed</w>",
    "717": "authoriz",
    "718": "equ",
    "719": "throug",
    "720": "Law",
    "721": "corpor",
    "722": "........",
    "723": "Distributor</w>",
    "724": "ritor",
    "725": "ges</w>",
    "726": "te</w>",
    "727": "Dis",
    "728": "you</w>",
    "729": "ts",
    "730": "oftware</w>",
    "731": "performance</w>",
    "732": "LE</w>",
    "733": "period</w>",
    "734": "again",
    "735": "ould</w>",
    "736": "[*****]</w>",
    "737": "medi",
    "738": "to,</w>",
    "739": "of,</w>",
    "740": "fur",
    "741": "tellec",
    "742": "tellectual</w>",
    "743": "make</w>",
    "744": "payment</w>",
    "745": "conduc",
    "746": "Pr",
    "747": "services</w>",
    "748": "Exhibit</w>",
    "749": "against</w>",
    "750": "ials</w>",
    "751": "person",
    "752": "Third</w>",
    "753": "non-",
    "754": "deemed</w>",
    "755": "B</w>",
    "756": "Each</w>",
    "757": "Territor",
    "758": "Sch",
    "759": "vi",
    "760": "S,</w>",
    "761": "7.",
    "762": "wor",
    "763": "Effective</w>",
    "764": "adver",
    "765": "UR",
    "766": "inter",
    "767": "cy</w>",
    "768": "avail",
    "769": "PRO",
    "770": "AGRE",
[...]
